{
  "version": "1.0",
  "truncation": null,
  "padding": null,
  "added_tokens": [],
  "normalizer": {
    "type": "Sequence",
    "normalizers": [
      {
        "type": "NFD"
      },
      {
        "type": "Lowercase"
      },
      {
        "type": "StripAccents"
      }
    ]
  },
  "pre_tokenizer": {
    "type": "Whitespace"
  },
  "post_processor": null,
  "decoder": {
    "type": "WordPiece",
    "prefix": "##",
    "cleanup": true
  },
  "model": {
    "type": "WordPiece",
    "unk_token": "[UNK]",
    "continuing_subword_prefix": "##",
    "max_input_chars_per_word": 100,
    "vocab": {
      "!": 0,
      "\"": 1,
      "#": 2,
      "$": 3,
      "%": 4,
      "&": 5,
      "'": 6,
      "(": 7,
      ")": 8,
      "*": 9,
      "+": 10,
      ",": 11,
      "-": 12,
      ".": 13,
      "/": 14,
      "0": 15,
      "1": 16,
      "2": 17,
      "3": 18,
      "4": 19,
      "5": 20,
      "6": 21,
      "7": 22,
      "8": 23,
      "9": 24,
      ":": 25,
      ";": 26,
      "=": 27,
      ">": 28,
      "?": 29,
      "@": 30,
      "[": 31,
      "\\": 32,
      "]": 33,
      "^": 34,
      "_": 35,
      "`": 36,
      "a": 37,
      "b": 38,
      "c": 39,
      "d": 40,
      "e": 41,
      "f": 42,
      "g": 43,
      "h": 44,
      "i": 45,
      "j": 46,
      "k": 47,
      "l": 48,
      "m": 49,
      "n": 50,
      "o": 51,
      "p": 52,
      "q": 53,
      "r": 54,
      "s": 55,
      "t": 56,
      "u": 57,
      "v": 58,
      "w": 59,
      "x": 60,
      "y": 61,
      "z": 62,
      "{": 63,
      "|": 64,
      "}": 65,
      "~": 66,
      "": 67,
      "£": 68,
      "«": 69,
      "­": 70,
      "®": 71,
      "°": 72,
      "±": 73,
      "·": 74,
      "»": 75,
      "¼": 76,
      "×": 77,
      "æ": 78,
      "ð": 79,
      "ø": 80,
      "ı": 81,
      "ɔ": 82,
      "ʖ": 83,
      "α": 84,
      "β": 85,
      "δ": 86,
      "ε": 87,
      "θ": 88,
      "ω": 89,
      "а": 90,
      "б": 91,
      "в": 92,
      "г": 93,
      "д": 94,
      "е": 95,
      "ж": 96,
      "з": 97,
      "и": 98,
      "к": 99,
      "л": 100,
      "м": 101,
      "н": 102,
      "о": 103,
      "п": 104,
      "р": 105,
      "с": 106,
      "т": 107,
      "у": 108,
      "ф": 109,
      "х": 110,
      "ц": 111,
      "ч": 112,
      "ш": 113,
      "щ": 114,
      "ъ": 115,
      "ы": 116,
      "ь": 117,
      "э": 118,
      "ю": 119,
      "я": 120,
      "і": 121,
      "​": 122,
      "‎": 123,
      "‏": 124,
      "‑": 125,
      "–": 126,
      "—": 127,
      "―": 128,
      "‘": 129,
      "’": 130,
      "“": 131,
      "”": 132,
      "„": 133,
      "•": 134,
      "…": 135,
      "‪": 136,
      "№": 137,
      "™": 138,
      "∆": 139,
      "⊕": 140,
      "ⓜ": 141,
      "─": 142,
      "△": 143,
      "►": 144,
      "☀": 145,
      "☝": 146,
      "☺": 147,
      "⚽": 148,
      "✨": 149,
      "❁": 150,
      "❤": 151,
      "、": 152,
      "。": 153,
      "『": 154,
      "』": 155,
      "〜": 156,
      "い": 157,
      "お": 158,
      "か": 159,
      "き": 160,
      "く": 161,
      "け": 162,
      "さ": 163,
      "し": 164,
      "す": 165,
      "た": 166,
      "ち": 167,
      "っ": 168,
      "て": 169,
      "と": 170,
      "な": 171,
      "に": 172,
      "の": 173,
      "は": 174,
      "ほ": 175,
      "め": 176,
      "も": 177,
      "や": 178,
      "よ": 179,
      "り": 180,
      "る": 181,
      "を": 182,
      "ん": 183,
      "ア": 184,
      "イ": 185,
      "ウ": 186,
      "エ": 187,
      "オ": 188,
      "カ": 189,
      "キ": 190,
      "ク": 191,
      "ケ": 192,
      "コ": 193,
      "サ": 194,
      "シ": 195,
      "ス": 196,
      "タ": 197,
      "チ": 198,
      "ッ": 199,
      "ト": 200,
      "ニ": 201,
      "ノ": 202,
      "ハ": 203,
      "ヒ": 204,
      "フ": 205,
      "ヘ": 206,
      "ホ": 207,
      "メ": 208,
      "ャ": 209,
      "ュ": 210,
      "ラ": 211,
      "リ": 212,
      "ン": 213,
      "ー": 214,
      "上": 215,
      "个": 216,
      "今": 217,
      "仕": 218,
      "你": 219,
      "入": 220,
      "写": 221,
      "分": 222,
      "包": 223,
      "可": 224,
      "咪": 225,
      "哪": 226,
      "困": 227,
      "大": 228,
      "天": 229,
      "好": 230,
      "子": 231,
      "宠": 232,
      "帮": 233,
      "平": 234,
      "愛": 235,
      "感": 236,
      "成": 237,
      "担": 238,
      "择": 239,
      "持": 240,
      "気": 241,
      "沙": 242,
      "然": 243,
      "猫": 244,
      "理": 245,
      "症": 246,
      "真": 247,
      "素": 248,
      "練": 249,
      "肌": 250,
      "背": 251,
      "自": 252,
      "良": 253,
      "萌": 254,
      "让": 255,
      "该": 256,
      "負": 257,
      "購": 258,
      "选": 259,
      "难": 260,
      "集": 261,
      "！": 262,
      "？": 263,
      "ｽ": 264,
      "ﾄ": 265,
      "ﾊ": 266,
      "ﾞ": 267,
      "🇸": 268,
      "🇺": 269,
      "🌙": 270,
      "🌪": 271,
      "🌴": 272,
      "🍊": 273,
      "🍑": 274,
      "🍥": 275,
      "🍼": 276,
      "🏆": 277,
      "🏻": 278,
      "🏼": 279,
      "🏽": 280,
      "🏿": 281,
      "🐅": 282,
      "🐇": 283,
      "🐊": 284,
      "🐍": 285,
      "🐒": 286,
      "🐖": 287,
      "🐢": 288,
      "🐣": 289,
      "🐱": 290,
      "🐶": 291,
      "🐽": 292,
      "🐿": 293,
      "👀": 294,
      "👆": 295,
      "👈": 296,
      "👉": 297,
      "👊": 298,
      "👏": 299,
      "👗": 300,
      "👩": 301,
      "👯": 302,
      "👶": 303,
      "👻": 304,
      "👼": 305,
      "💄": 306,
      "💇": 307,
      "💋": 308,
      "💔": 309,
      "💕": 310,
      "💖": 311,
      "💗": 312,
      "💙": 313,
      "💚": 314,
      "💝": 315,
      "💞": 316,
      "💥": 317,
      "💪": 318,
      "📷": 319,
      "📸": 320,
      "🔁": 321,
      "🔸": 322,
      "😂": 323,
      "😃": 324,
      "😄": 325,
      "😆": 326,
      "😉": 327,
      "😊": 328,
      "😍": 329,
      "😎": 330,
      "😘": 331,
      "😜": 332,
      "😬": 333,
      "😱": 334,
      "😴": 335,
      "😸": 336,
      "😻": 337,
      "😽": 338,
      "🙀": 339,
      "🙄": 340,
      "🙈": 341,
      "🙊": 342,
      "🙏": 343,
      "🤓": 344,
      "🤗": 345,
      "🦄": 346,
      "##а": 347,
      "##п": 348,
      "##т": 349,
      "##е": 350,
      "##н": 351,
      "##о": 352,
      "##в": 353,
      "##г": 354,
      "##х": 355,
      "##р": 356,
      "##и": 357,
      "##я": 358,
      "##д": 359,
      "##м": 360,
      "##л": 361,
      "##ю": 362,
      "##к": 363,
      "##у": 364,
      "##ц": 365,
      "##ы": 366,
      "##ь": 367,
      "##с": 368,
      "##ч": 369,
      "##з": 370,
      "##ш": 371,
      "##ж": 372,
      "##б": 373,
      "##щ": 374,
      "##e": 375,
      "##w": 376,
      "##s": 377,
      "##p": 378,
      "##a": 379,
      "##r": 380,
      "##2": 381,
      "##1": 382,
      "##u": 383,
      "##v": 384,
      "##i": 385,
      "##l": 386,
      "##n": 387,
      "##t": 388,
      "##m": 389,
      "##ф": 390,
      "##э": 391,
      "##0": 392,
      "##5": 393,
      "##ъ": 394,
      "##b": 395,
      "##c": 396,
      "##d": 397,
      "##6": 398,
      "##4": 399,
      "##8": 400,
      "##7": 401,
      "##x": 402,
      "##o": 403,
      "##j": 404,
      "##h": 405,
      "##k": 406,
      "##y": 407,
      "##g": 408,
      "##@": 409,
      "##3": 410,
      "##9": 411,
      "##z": 412,
      "##f": 413,
      "##)": 414,
      "##;": 415,
      "##\"": 416,
      "##~": 417,
      "##ı": 418,
      "##.": 419,
      "##/": 420,
      "##—": 421,
      "##😸": 422,
      "##😽": 423,
      "##q": 424,
      "##-": 425,
      "##»": 426,
      "##«": 427,
      "##🏻": 428,
      "##💙": 429,
      "##_": 430,
      "##,": 431,
      "##!": 432,
      "##(": 433,
      "##🏿": 434,
      "##🙏": 435,
      "##🌴": 436,
      "##☀": 437,
      "###": 438,
      "##+": 439,
      "##*": 440,
      "##😂": 441,
      "##😍": 442,
      "##}": 443,
      "##ø": 444,
      "##💪": 445,
      "##💖": 446,
      "##:": 447,
      "##[": 448,
      "##❤": 449,
      "##…": 450,
      "##ﾞ": 451,
      "##ｽ": 452,
      "##ð": 453,
      "##🤓": 454,
      "##ト": 455,
      "##ハ": 456,
      "##子": 457,
      "##理": 458,
      "##沙": 459,
      "##写": 460,
      "##真": 461,
      "##集": 462,
      "##$": 463,
      "##ッ": 464,
      "##ケ": 465,
      "##ー": 466,
      "##シ": 467,
      "##も": 468,
      "##可": 469,
      "##愛": 470,
      "##く": 471,
      "##🏼": 472,
      "##]": 473,
      "##好": 474,
      "##き": 475,
      "##'": 476,
      "##宠": 477,
      "##–": 478,
      "##て": 479,
      "##購": 480,
      "##入": 481,
      "##し": 482,
      "##た": 483,
      "##今": 484,
      "##っ": 485,
      "##ほ": 486,
      "##い": 487,
      "##メ": 488,
      "##イ": 489,
      "##ク": 490,
      "##に": 491,
      "##仕": 492,
      "##上": 493,
      "##か": 494,
      "##る": 495,
      "##コ": 496,
      "##ス": 497,
      "##フ": 498,
      "##ラ": 499,
      "##ン": 500,
      "##💞": 501,
      "##>": 502,
      "##然": 503,
      "##練": 504,
      "##り": 505,
      "##チ": 506,
      "##や": 507,
      "##オ": 508,
      "##す": 509,
      "##👆": 510,
      "##👼": 511,
      "##キ": 512,
      "##ャ": 513,
      "##は": 514,
      "##カ": 515,
      "##ニ": 516,
      "##な": 517,
      "##の": 518,
      "##👏": 519,
      "##🏆": 520,
      "##😘": 521,
      "##💝": 522,
      "##😜": 523,
      "##?": 524,
      "##­": 525,
      "##ヒ": 526,
      "##タ": 527,
      "##“": 528,
      "##і": 529,
      "##『": 530,
      "##🦄": 531,
      "##🏽": 532,
      "##気": 533,
      "##良": 534,
      "##持": 535,
      "##ち": 536,
      "##🍊": 537,
      "##✨": 538,
      "##​": 539,
      "##👻": 540,
      "##ウ": 541,
      "##|": 542,
      "##δ": 543,
      "##💗": 544,
      "##😃": 545,
      "##め": 546,
      "##±": 547,
      "##猫": 548,
      "##咪": 549,
      "##帮": 550,
      "##你": 551,
      "##选": 552,
      "##天": 553,
      "##该": 554,
      "##背": 555,
      "##哪": 556,
      "##个": 557,
      "##包": 558,
      "##择": 559,
      "##困": 560,
      "##难": 561,
      "##症": 562,
      "##ュ": 563,
      "##リ": 564,
      "##ア": 565,
      "##ホ": 566,
      "##と": 567,
      "##さ": 568,
      "##ん": 569,
      "##サ": 570,
      "##‎": 571,
      "##成": 572,
      "##分": 573,
      "##感": 574,
      "##よ": 575,
      "##😉": 576,
      "##👀": 577,
      "##🍑": 578,
      "##🇸": 579,
      "##„": 580,
      "##🍼": 581,
      "##🐣": 582,
      "##🐒": 583,
      "##🐱": 584,
      "##🐶": 585,
      "##🐢": 586,
      "##🐖": 587,
      "##🐍": 588,
      "##🐅": 589,
      "##🐿": 590,
      "##🐇": 591,
      "##🔁": 592,
      "##🐽": 593,
      "##負": 594,
      "##担": 595,
      "##を": 596,
      "##け": 597,
      "##素": 598,
      "##肌": 599,
      "##№": 600,
      "##”": 601,
      "##😻": 602,
      "##ст": 603,
      "##ен": 604,
      "##ов": 605,
      "##ан": 606,
      "##ер": 607,
      "по": 608,
      "##ет": 609,
      "пр": 610,
      "##то": 611,
      "##но": 612,
      "##ал": 613,
      "##ии": 614,
      "на": 615,
      "##ел": 616,
      "##ит": 617,
      "##ил": 618,
      "##ра": 619,
      "##ск": 620,
      "##од": 621,
      "##ом": 622,
      "##ол": 623,
      "##ны": 624,
      "##го": 625,
      "##ат": 626,
      "##ед": 627,
      "##ин": 628,
      "##он": 629,
      "##ем": 630,
      "##ор": 631,
      "##ия": 632,
      "##ар": 633,
      "##ся": 634,
      "##ак": 635,
      "со": 636,
      "##ик": 637,
      "##ои": 638,
      "##ос": 639,
      "##ав": 640,
      "##ие": 641,
      "##ам": 642,
      "##ств": 643,
      "##еи": 644,
      "##ли": 645,
      "##аз": 646,
      "##ек": 647,
      "##им": 648,
      "за": 649,
      "об": 650,
      "##об": 651,
      "не": 652,
      "от": 653,
      "##ру": 654,
      "##от": 655,
      "##тор": 656,
      "##ент": 657,
      "##ас": 658,
      "##ля": 659,
      "##ив": 660,
      "что": 661,
      "из": 662,
      "##ель": 663,
      "20": 664,
      "год": 665,
      "ст": 666,
      "##ает": 667,
      "##ис": 668,
      "##ев": 669,
      "вы": 670,
      "##ла": 671,
      "про": 672,
      "##ир": 673,
      "##ого": 674,
      "ко": 675,
      "##ест": 676,
      "##нои": 677,
      "##их": 678,
      "##уд": 679,
      "##ных": 680,
      "##ич": 681,
      "##ая": 682,
      "##ать": 683,
      "##аль": 684,
      "##ес": 685,
      "это": 686,
      "##ут": 687,
      "##из": 688,
      "бы": 689,
      "##ения": 690,
      "##ци": 691,
      "##ож": 692,
      "201": 693,
      "##оль": 694,
      "пер": 695,
      "##пр": 696,
      "##ост": 697,
      "##ка": 698,
      "рос": 699,
      "##ид": 700,
      "##ран": 701,
      "##ции": 702,
      "ком": 703,
      "##ист": 704,
      "##ур": 705,
      "##ного": 706,
      "##ез": 707,
      "##ок": 708,
      "росс": 709,
      "под": 710,
      "во": 711,
      "##лу": 712,
      "так": 713,
      "пред": 714,
      "##ник": 715,
      "##же": 716,
      "##ую": 717,
      "##ение": 718,
      "##ог": 719,
      "##ован": 720,
      "##ить": 721,
      "св": 722,
      "##ре": 723,
      "##ност": 724,
      "##став": 725,
      "##общ": 726,
      "котор": 727,
      "##ныи": 728,
      "##ные": 729,
      "он": 730,
      "##сл": 731,
      "раз": 732,
      "сообщ": 733,
      "ин": 734,
      "года": 735,
      "##ют": 736,
      "##ным": 737,
      "##ят": 738,
      "##да": 739,
      "россии": 740,
      "ре": 741,
      "##ее": 742,
      "##аб": 743,
      "##ро": 744,
      "##ном": 745,
      "##ль": 746,
      "##ки": 747,
      "од": 748,
      "##уб": 749,
      "как": 750,
      "##ад": 751,
      "##аст": 752,
      "##яв": 753,
      "##сп": 754,
      "##али": 755,
      "##или": 756,
      "##ко": 757,
      "##ала": 758,
      "##иче": 759,
      "кон": 760,
      "сп": 761,
      "##итель": 762,
      "##уп": 763,
      "дол": 764,
      "комп": 765,
      "##кт": 766,
      "до": 767,
      "##ые": 768,
      "##илли": 769,
      "##ход": 770,
      "этом": 771,
      "##еч": 772,
      "##лен": 773,
      "при": 774,
      "##арт": 775,
      "для": 776,
      "##ых": 777,
      "##зв": 778,
      "##ию": 779,
      "»,": 780,
      "##жд": 781,
      "##иц": 782,
      "милли": 783,
      "##его": 784,
      "##ическ": 785,
      "##ыи": 786,
      "буд": 787,
      "##ря": 788,
      "сл": 789,
      "рас": 790,
      "##на": 791,
      "##ании": 792,
      "##каз": 793,
      "ав": 794,
      "##ыв": 795,
      "##ами": 796,
      "был": 797,
      "##рат": 798,
      "##мер": 799,
      "##ении": 800,
      "##er": 801,
      "##ах": 802,
      "посл": 803,
      "##рем": 804,
      "##ект": 805,
      "##ается": 806,
      "году": 807,
      "нов": 808,
      "также": 809,
      "##ания": 810,
      "##ила": 811,
      "##ма": 812,
      "##ства": 813,
      "его": 814,
      "##ми": 815,
      "##рав": 816,
      "##ского": 817,
      "##ется": 818,
      "вс": 819,
      "уч": 820,
      "##оч": 821,
      "пл": 822,
      "кр": 823,
      "##ку": 824,
      "##скои": 825,
      "##иль": 826,
      "##ера": 827,
      "##ство": 828,
      "##луч": 829,
      "##оя": 830,
      "##ности": 831,
      "проц": 832,
      "##иг": 833,
      "##ня": 834,
      "##иров": 835,
      "».": 836,
      "##ствен": 837,
      "##еля": 838,
      "сам": 839,
      "прод": 840,
      "##ег": 841,
      "##ков": 842,
      "оп": 843,
      "ос": 844,
      "##ают": 845,
      "##ная": 846,
      "дв": 847,
      "##убл": 848,
      "##анд": 849,
      "мат": 850,
      "##ина": 851,
      "##ще": 852,
      "##тер": 853,
      "##мен": 854,
      "##ум": 855,
      "раб": 856,
      "заяв": 857,
      "##ун": 858,
      "##гра": 859,
      "##пу": 860,
      "##ров": 861,
      "сер": 862,
      "##ющ": 863,
      "##скии": 864,
      "##ое": 865,
      "врем": 866,
      "##лав": 867,
      "##она": 868,
      "##ке": 869,
      "пол": 870,
      "##ью": 871,
      "процент": 872,
      "прои": 873,
      "##оз": 874,
      "сообщает": 875,
      "##ели": 876,
      "перв": 877,
      "тр": 878,
      "воз": 879,
      "##ное": 880,
      "ан": 881,
      "##ось": 882,
      "##ись": 883,
      "лет": 884,
      "##лю": 885,
      "исп": 886,
      "##аров": 887,
      "##том": 888,
      "мин": 889,
      "зак": 890,
      "##орт": 891,
      "будет": 892,
      "работ": 893,
      "##on": 894,
      "##нов": 895,
      "##пол": 896,
      "##цион": 897,
      "##ион": 898,
      "##ция": 899,
      "##ета": 900,
      "##атель": 901,
      "##бря": 902,
      "##an": 903,
      "##ред": 904,
      "##ех": 905,
      "##in": 906,
      "##есс": 907,
      "##ием": 908,
      "##анов": 909,
      "после": 910,
      "##ры": 911,
      "##ную": 912,
      "мо": 913,
      "ру": 914,
      "ор": 915,
      "##еж": 916,
      "##ится": 917,
      "тем": 918,
      "##руп": 919,
      "##иза": 920,
      "##раз": 921,
      "##лад": 922,
      "##вер": 923,
      "##уж": 924,
      "нач": 925,
      "19": 926,
      "отм": 927,
      "состав": 928,
      "получ": 929,
      "прав": 930,
      "са": 931,
      "долл": 932,
      "##ти": 933,
      "##иш": 934,
      "пров": 935,
      "част": 936,
      "прин": 937,
      "##ась": 938,
      "##ских": 939,
      "##руг": 940,
      "##ание": 941,
      "##раб": 942,
      "объ": 943,
      "##ar": 944,
      "##са": 945,
      "##олько": 946,
      "##бы": 947,
      "ев": 948,
      ").": 949,
      "##ым": 950,
      "эк": 951,
      "стран": 952,
      "##не": 953,
      "200": 954,
      "##ме": 955,
      "время": 956,
      "одн": 957,
      "ар": 958,
      "глав": 959,
      "##en": 960,
      "долларов": 961,
      "##тора": 962,
      "##иру": 963,
      "де": 964,
      "##фор": 965,
      "вер": 966,
      "##елеи": 967,
      "ию": 968,
      "##аг": 969,
      "представ": 970,
      "##инг": 971,
      "##ирован": 972,
      "##циаль": 973,
      "##сяч": 974,
      "ты": 975,
      "ме": 976,
      "##оп": 977,
      "слов": 978,
      "компании": 979,
      "##he": 980,
      "##ень": 981,
      "чем": 982,
      "##цию": 983,
      "сво": 984,
      "##le": 985,
      "##еты": 986,
      "##зов": 987,
      "иг": 988,
      "тысяч": 989,
      "##лек": 990,
      "интер": 991,
      "##прав": 992,
      "бол": 993,
      "##ть": 994,
      "пост": 995,
      "ок": 996,
      "мож": 997,
      "##дел": 998,
      "дан": 999,
      "##та": 1000,
      "мест": 1001,
      "##ери": 1002,
      "##вест": 1003,
      "##ерж": 1004,
      "##рал": 1005,
      "##иб": 1006,
      "\",": 1007,
      "сов": 1008,
      "##ность": 1009,
      "соб": 1010,
      "ка": 1011,
      "##00": 1012,
      "миллиар": 1013,
      "газ": 1014,
      "##ском": 1015,
      "##па": 1016,
      "сред": 1017,
      "бр": 1018,
      "##or": 1019,
      "##ша": 1020,
      "##ена": 1021,
      "ран": 1022,
      "##es": 1023,
      "##овор": 1024,
      "##ган": 1025,
      "саит": 1026,
      "\".": 1027,
      "сто": 1028,
      "##уль": 1029,
      "##бор": 1030,
      "##яз": 1031,
      "реш": 1032,
      "##люч": 1033,
      "том": 1034,
      "##ни": 1035,
      "##ики": 1036,
      "того": 1037,
      "##зд": 1038,
      "##ены": 1039,
      "моск": 1040,
      "##ше": 1041,
      "уст": 1042,
      "##кра": 1043,
      "##му": 1044,
      "сч": 1045,
      "##ус": 1046,
      "##пис": 1047,
      "##пл": 1048,
      "тел": 1049,
      "##уз": 1050,
      "дж": 1051,
      "яв": 1052,
      "боль": 1053,
      "##al": 1054,
      "##гу": 1055,
      "ск": 1056,
      "##ика": 1057,
      "ее": 1058,
      "но": 1059,
      "кол": 1060,
      "кор": 1061,
      "##онов": 1062,
      "##ября": 1063,
      "##стоя": 1064,
      "##тов": 1065,
      "план": 1066,
      "матери": 1067,
      "##ако": 1068,
      "которыи": 1069,
      "##де": 1070,
      "дост": 1071,
      "друг": 1072,
      "вид": 1073,
      "суд": 1074,
      "##ными": 1075,
      "было": 1076,
      "##кои": 1077,
      "the": 1078,
      "однако": 1079,
      "##икан": 1080,
      "##ец": 1081,
      "явля": 1082,
      "бан": 1083,
      "ист": 1084,
      "##ению": 1085,
      "перед": 1086,
      "евро": 1087,
      "рубл": 1088,
      "##вар": 1089,
      "##алось": 1090,
      "##ять": 1091,
      "их": 1092,
      "##че": 1093,
      "##oo": 1094,
      "участ": 1095,
      "##уч": 1096,
      "##ира": 1097,
      "орган": 1098,
      "рублеи": 1099,
      "2015": 1100,
      "словам": 1101,
      "пом": 1102,
      "гор": 1103,
      "##ины": 1104,
      "##гл": 1105,
      "акт": 1106,
      "),": 1107,
      "заявил": 1108,
      "более": 1109,
      "##еб": 1110,
      "##ская": 1111,
      "долж": 1112,
      "##реб": 1113,
      "##елов": 1114,
      "##неи": 1115,
      "##але": 1116,
      "ак": 1117,
      "проект": 1118,
      "##at": 1119,
      "##ские": 1120,
      "фин": 1121,
      "##алы": 1122,
      "которые": 1123,
      "##ул": 1124,
      "амер": 1125,
      "##ульт": 1126,
      "то": 1127,
      "поль": 1128,
      "##ников": 1129,
      "##ласт": 1130,
      "сша": 1131,
      "ранее": 1132,
      "рек": 1133,
      "свои": 1134,
      "##ался": 1135,
      "##ента": 1136,
      "##вет": 1137,
      "зав": 1138,
      "##аться": 1139,
      "##нач": 1140,
      "рез": 1141,
      "тур": 1142,
      "##оло": 1143,
      "изд": 1144,
      "созд": 1145,
      "филь": 1146,
      "укра": 1147,
      "##ления": 1148,
      "##ора": 1149,
      "##ce": 1150,
      "##сов": 1151,
      "гос": 1152,
      "##ри": 1153,
      "##руд": 1154,
      "процентов": 1155,
      "пов": 1156,
      "##it": 1157,
      "##нии": 1158,
      "##ости": 1159,
      "##изн": 1160,
      "были": 1161,
      "оф": 1162,
      "##иков": 1163,
      "##ущ": 1164,
      "##ана": 1165,
      "см": 1166,
      "уд": 1167,
      "##ающ": 1168,
      "##след": 1169,
      "##ним": 1170,
      "конц": 1171,
      "##еть": 1172,
      "##ант": 1173,
      "##ало": 1174,
      "уже": 1175,
      "американ": 1176,
      "##сы": 1177,
      "инфор": 1178,
      "послед": 1179,
      "межд": 1180,
      "##ино": 1181,
      "лю": 1182,
      "##ился": 1183,
      "##пер": 1184,
      "##ле": 1185,
      "груп": 1186,
      "зан": 1187,
      "челов": 1188,
      "она": 1189,
      "през": 1190,
      "##ата": 1191,
      "ма": 1192,
      "конт": 1193,
      "##ники": 1194,
      "влад": 1195,
      "оч": 1196,
      "дел": 1197,
      "они": 1198,
      "компания": 1199,
      "отмет": 1200,
      "информа": 1201,
      "пос": 1202,
      "произв": 1203,
      "была": 1204,
      "##цен": 1205,
      "чер": 1206,
      "##шии": 1207,
      "##работ": 1208,
      "##ующ": 1209,
      "##сказ": 1210,
      "все": 1211,
      "материалы": 1212,
      "##ото": 1213,
      "##яс": 1214,
      "##иск": 1215,
      "прот": 1216,
      "##енд": 1217,
      "##оме": 1218,
      "##еиств": 1219,
      "##ине": 1220,
      "втор": 1221,
      "##стве": 1222,
      "2016": 1223,
      "##ступ": 1224,
      "презид": 1225,
      "2013": 1226,
      "##ух": 1227,
      "неск": 1228,
      "миллионов": 1229,
      "нед": 1230,
      "человек": 1231,
      "##раж": 1232,
      "чемп": 1233,
      "##ло": 1234,
      "##ещ": 1235,
      "##ter": 1236,
      "наз": 1237,
      "им": 1238,
      "след": 1239,
      "минист": 1240,
      "зам": 1241,
      "ост": 1242,
      "##ощ": 1243,
      "##ования": 1244,
      "2014": 1245,
      "связ": 1246,
      "аг": 1247,
      "2012": 1248,
      "##ro": 1249,
      "прив": 1250,
      "##пы": 1251,
      "##ic": 1252,
      "##прос": 1253,
      "извест": 1254,
      "10": 1255,
      "ян": 1256,
      "вед": 1257,
      "##истем": 1258,
      "может": 1259,
      "является": 1260,
      "или": 1261,
      "##луж": 1262,
      "##аж": 1263,
      "систем": 1264,
      "сот": 1265,
      "около": 1266,
      "ув": 1267,
      "отк": 1268,
      "теме": 1269,
      "##ими": 1270,
      "ис": 1271,
      "##лож": 1272,
      "##ках": 1273,
      "##ук": 1274,
      "##ались": 1275,
      "##il": 1276,
      "процента": 1277,
      "этого": 1278,
      "##урн": 1279,
      "март": 1280,
      "##ита": 1281,
      "еще": 1282,
      "только": 1283,
      "##емь": 1284,
      "##лекс": 1285,
      "тех": 1286,
      "##оны": 1287,
      "##ниц": 1288,
      "##онд": 1289,
      "журн": 1290,
      "исполь": 1291,
      ".«": 1292,
      "иск": 1293,
      "##иа": 1294,
      "##держ": 1295,
      "##утб": 1296,
      "доб": 1297,
      "сбор": 1298,
      "основ": 1299,
      "сент": 1300,
      "пок": 1301,
      "##лам": 1302,
      "эксп": 1303,
      "##есп": 1304,
      "##лич": 1305,
      "мар": 1306,
      "##ициаль": 1307,
      "пользов": 1308,
      "пор": 1309,
      "будут": 1310,
      "##мест": 1311,
      "футб": 1312,
      "гол": 1313,
      "же": 1314,
      "##ош": 1315,
      "15": 1316,
      "город": 1317,
      "чемпион": 1318,
      "##алист": 1319,
      "мог": 1320,
      "ры": 1321,
      "те": 1322,
      "мед": 1323,
      "окт": 1324,
      "вз": 1325,
      "##мы": 1326,
      "организа": 1327,
      "##ерш": 1328,
      "12": 1329,
      "##иеи": 1330,
      "без": 1331,
      "появ": 1332,
      "поб": 1333,
      "официаль": 1334,
      "##st": 1335,
      "кроме": 1336,
      "чис": 1337,
      "##ста": 1338,
      "##лог": 1339,
      "сотруд": 1340,
      "сдел": 1341,
      "дом": 1342,
      "тер": 1343,
      "##ших": 1344,
      "пар": 1345,
      "показ": 1346,
      "##енных": 1347,
      "карт": 1348,
      "агент": 1349,
      "дек": 1350,
      "россия": 1351,
      "##ника": 1352,
      "##лет": 1353,
      "прим": 1354,
      "##сии": 1355,
      "саите": 1356,
      "москв": 1357,
      "прош": 1358,
      "разв": 1359,
      "##обр": 1360,
      "##ги": 1361,
      "производ": 1362,
      "##ара": 1363,
      "муз": 1364,
      "##сли": 1365,
      "##ление": 1366,
      "над": 1367,
      "2011": 1368,
      "##мож": 1369,
      "##ено": 1370,
      "пресс": 1371,
      "##ате": 1372,
      "##точ": 1373,
      "##дов": 1374,
      "##акт": 1375,
      "##еры": 1376,
      "фор": 1377,
      "##et": 1378,
      "больш": 1379,
      "отмеч": 1380,
      "##ило": 1381,
      "миллиарда": 1382,
      "январ": 1383,
      "##итан": 1384,
      "рассказ": 1385,
      "##вин": 1386,
      "назв": 1387,
      "##ителя": 1388,
      "##ou": 1389,
      "##етров": 1390,
      "##ба": 1391,
      "мод": 1392,
      "##коном": 1393,
      "наход": 1394,
      "апр": 1395,
      "выступ": 1396,
      "##ком": 1397,
      "алекс": 1398,
      "результ": 1399,
      "вк": 1400,
      "##гда": 1401,
      "##am": 1402,
      "##дж": 1403,
      "##ителеи": 1404,
      "виде": 1405,
      "##торая": 1406,
      "ноя": 1407,
      "авгу": 1408,
      "##ением": 1409,
      "##ему": 1410,
      "##асс": 1411,
      "кан": 1412,
      "##иться": 1413,
      "постав": 1414,
      "образ": 1415,
      "говор": 1416,
      "деиств": 1417,
      "декаб": 1418,
      "чтобы": 1419,
      "спорт": 1420,
      "ра": 1421,
      "##илась": 1422,
      "спе": 1423,
      "фран": 1424,
      "##ыш": 1425,
      "##цев": 1426,
      "пока": 1427,
      "тор": 1428,
      "##грам": 1429,
      "##нет": 1430,
      "##сто": 1431,
      "##глас": 1432,
      "финан": 1433,
      "несколько": 1434,
      "ад": 1435,
      "##лаг": 1436,
      "##чи": 1437,
      "оказ": 1438,
      "су": 1439,
      "команд": 1440,
      "против": 1441,
      "##нут": 1442,
      "два": 1443,
      "когда": 1444,
      "##ова": 1445,
      "##ерт": 1446,
      "##алась": 1447,
      "выпу": 1448,
      "сообщается": 1449,
      "##удар": 1450,
      "##рок": 1451,
      "##мот": 1452,
      "реклам": 1453,
      "учен": 1454,
      "ник": 1455,
      "возмож": 1456,
      "програм": 1457,
      "##ирек": 1458,
      "исслед": 1459,
      "пользоват": 1460,
      "##уш": 1461,
      "##ляет": 1462,
      "##ость": 1463,
      "миллиона": 1464,
      "##иж": 1465,
      "##еров": 1466,
      "клу": 1467,
      "которая": 1468,
      "##иф": 1469,
      "цент": 1470,
      "фото": 1471,
      "поли": 1472,
      "##ители": 1473,
      "##as": 1474,
      "разработ": 1475,
      "##стр": 1476,
      "тран": 1477,
      "государ": 1478,
      "эт": 1479,
      "##ясн": 1480,
      "шт": 1481,
      "##ному": 1482,
      "30": 1483,
      "фев": 1484,
      "пут": 1485,
      "##олн": 1486,
      "##енты": 1487,
      "##вед": 1488,
      "пот": 1489,
      "##стоящ": 1490,
      "##ew": 1491,
      "октября": 1492,
      "поч": 1493,
      "жен": 1494,
      "##лект": 1495,
      "док": 1496,
      "день": 1497,
      "##рос": 1498,
      "##ласти": 1499,
      "##ину": 1500,
      "##аем": 1501,
      "кра": 1502,
      "один": 1503,
      "июля": 1504,
      "феврал": 1505,
      "аль": 1506,
      "##ящ": 1507,
      "##полн": 1508,
      "##альнои": 1509,
      "фед": 1510,
      "##оне": 1511,
      "##ству": 1512,
      "##ковод": 1513,
      "мы": 1514,
      "##ились": 1515,
      "##аются": 1516,
      "##исс": 1517,
      "##га": 1518,
      "##ца": 1519,
      "июня": 1520,
      "##рех": 1521,
      "13": 1522,
      "##сыл": 1523,
      "опубл": 1524,
      "случ": 1525,
      "имен": 1526,
      "сентября": 1527,
      "круп": 1528,
      "##ed": 1529,
      "руковод": 1530,
      "##ским": 1531,
      "кар": 1532,
      "##ян": 1533,
      "счет": 1534,
      "гра": 1535,
      "##аты": 1536,
      "##ести": 1537,
      "сум": 1538,
      "если": 1539,
      "##еп": 1540,
      "##шего": 1541,
      "общ": 1542,
      "##гов": 1543,
      "11": 1544,
      "данным": 1545,
      "##ером": 1546,
      "побед": 1547,
      "стал": 1548,
      "заним": 1549,
      "отно": 1550,
      "18": 1551,
      "гер": 1552,
      "##еннои": 1553,
      "мен": 1554,
      "##el": 1555,
      "соглас": 1556,
      "##ди": 1557,
      "самол": 1558,
      "неф": 1559,
      "##твер": 1560,
      "матч": 1561,
      "##ются": 1562,
      "##ият": 1563,
      "эконом": 1564,
      "служ": 1565,
      "##ol": 1566,
      "всего": 1567,
      "которых": 1568,
      "марта": 1569,
      "25": 1570,
      "##нар": 1571,
      "##ерб": 1572,
      "##om": 1573,
      "##is": 1574,
      "вел": 1575,
      "реж": 1576,
      "##ование": 1577,
      "16": 1578,
      "счит": 1579,
      "14": 1580,
      "##ние": 1581,
      "##енные": 1582,
      "жив": 1583,
      "пят": 1584,
      "##ыт": 1585,
      "зап": 1586,
      "откры": 1587,
      "помощ": 1588,
      "##ени": 1589,
      "мак": 1590,
      "##дет": 1591,
      "##етов": 1592,
      "москов": 1593,
      "мая": 1594,
      "прич": 1595,
      "настоящ": 1596,
      "британ": 1597,
      "миллиардов": 1598,
      "выс": 1599,
      "предлож": 1600,
      "установ": 1601,
      "ссыл": 1602,
      "##re": 1603,
      "фильм": 1604,
      "апреля": 1605,
      "сан": 1606,
      "сек": 1607,
      "актив": 1608,
      "можно": 1609,
      "зв": 1610,
      "августа": 1611,
      "четы": 1612,
      "##алог": 1613,
      "объяв": 1614,
      "##ращ": 1615,
      "##пред": 1616,
      "рак": 1617,
      "##оде": 1618,
      "три": 1619,
      "интернет": 1620,
      "планиру": 1621,
      "##ляр": 1622,
      "##ети": 1623,
      "неи": 1624,
      "стан": 1625,
      "запр": 1626,
      "##имо": 1627,
      "нем": 1628,
      "##лив": 1629,
      "января": 1630,
      "место": 1631,
      "пиш": 1632,
      "кв": 1633,
      "дирек": 1634,
      "частности": 1635,
      "##ing": 1636,
      "футбол": 1637,
      "in": 1638,
      "сказ": 1639,
      "##ожд": 1640,
      "позв": 1641,
      "##прият": 1642,
      "правитель": 1643,
      "которои": 1644,
      "##за": 1645,
      "вст": 1646,
      "управ": 1647,
      "ноября": 1648,
      "рф": 1649,
      "##ям": 1650,
      "##вис": 1651,
      "отказ": 1652,
      "решение": 1653,
      "рам": 1654,
      "##ром": 1655,
      "##ических": 1656,
      "стор": 1657,
      "##олж": 1658,
      "##енно": 1659,
      "обор": 1660,
      "вос": 1661,
      "##ace": 1662,
      "##арод": 1663,
      "##нер": 1664,
      "##ion": 1665,
      "##ике": 1666,
      "сообщил": 1667,
      "двух": 1668,
      "использ": 1669,
      "##ad": 1670,
      "##ох": 1671,
      "президент": 1672,
      "декабря": 1673,
      "##ировать": 1674,
      "финансов": 1675,
      "##цы": 1676,
      "опера": 1677,
      "рост": 1678,
      "продаж": 1679,
      "##кур": 1680,
      "мира": 1681,
      "уг": 1682,
      "##шеи": 1683,
      "через": 1684,
      "сы": 1685,
      "##ународ": 1686,
      "##ере": 1687,
      "заб": 1688,
      "##ну": 1689,
      "##бре": 1690,
      "международ": 1691,
      "кам": 1692,
      "них": 1693,
      "отметил": 1694,
      "где": 1695,
      "кур": 1696,
      "оцен": 1697,
      "необ": 1698,
      "ген": 1699,
      "состоя": 1700,
      "обнар": 1701,
      "##мп": 1702,
      "##ального": 1703,
      "страны": 1704,
      "бел": 1705,
      "расс": 1706,
      "призн": 1707,
      "нас": 1708,
      "##иту": 1709,
      "соот": 1710,
      "##сс": 1711,
      "между": 1712,
      "17": 1713,
      "дев": 1714,
      "##ода": 1715,
      "быть": 1716,
      "##ch": 1717,
      "руб": 1718,
      "сеи": 1719,
      "го": 1720,
      "кос": 1721,
      "##ете": 1722,
      "пишет": 1723,
      "##ическои": 1724,
      "нап": 1725,
      "##ге": 1726,
      "порт": 1727,
      "мом": 1728,
      "сн": 1729,
      "могут": 1730,
      "позвол": 1731,
      "инд": 1732,
      "##ществ": 1733,
      "##ывает": 1734,
      "##оев": 1735,
      "##ано": 1736,
      "рын": 1737,
      "себ": 1738,
      "##езд": 1739,
      "##нению": 1740,
      "##ити": 1741,
      "##граф": 1742,
      "new": 1743,
      "лиш": 1744,
      "##атив": 1745,
      "случа": 1746,
      "муж": 1747,
      "выход": 1748,
      "свою": 1749,
      "##овои": 1750,
      "рел": 1751,
      "ред": 1752,
      "рад": 1753,
      "##us": 1754,
      "стать": 1755,
      "ссылкои": 1756,
      "нек": 1757,
      "##енного": 1758,
      "22": 1759,
      "чет": 1760,
      "предпол": 1761,
      "##су": 1762,
      "стро": 1763,
      "бли": 1764,
      "ито": 1765,
      "быв": 1766,
      "февраля": 1767,
      "мол": 1768,
      "2010": 1769,
      "зат": 1770,
      "##уют": 1771,
      "##час": 1772,
      "бю": 1773,
      "автом": 1774,
      "музы": 1775,
      "##еш": 1776,
      "владим": 1777,
      "мор": 1778,
      "##ья": 1779,
      "24": 1780,
      "##ерк": 1781,
      "##него": 1782,
      "которого": 1783,
      "##аны": 1784,
      "##овать": 1785,
      "кил": 1786,
      "21": 1787,
      "##жа": 1788,
      "обвин": 1789,
      "поддерж": 1790,
      "встре": 1791,
      "соответ": 1792,
      "##огда": 1793,
      "##яж": 1794,
      "##руш": 1795,
      "провед": 1796,
      "стоим": 1797,
      "##ерс": 1798,
      "##един": 1799,
      "источ": 1800,
      "##лем": 1801,
      "##ительно": 1802,
      "##мент": 1803,
      "##альныи": 1804,
      "котором": 1805,
      "рол": 1806,
      "##аш": 1807,
      "##ического": 1808,
      "меся": 1809,
      "луч": 1810,
      "##рии": 1811,
      "##лении": 1812,
      "произ": 1813,
      "обнаруж": 1814,
      "сеичас": 1815,
      "##гла": 1816,
      "род": 1817,
      "##ностью": 1818,
      "сервис": 1819,
      "##мещ": 1820,
      "поп": 1821,
      "премь": 1822,
      "199": 1823,
      "приня": 1824,
      "ведом": 1825,
      "четвер": 1826,
      "»)": 1827,
      "дет": 1828,
      "оли": 1829,
      "пет": 1830,
      "##слов": 1831,
      "##шие": 1832,
      "истор": 1833,
      "национ": 1834,
      "подпис": 1835,
      "##ook": 1836,
      "рамках": 1837,
      "##инов": 1838,
      "##особ": 1839,
      "лиц": 1840,
      "час": 1841,
      "исполн": 1842,
      "име": 1843,
      "##ыч": 1844,
      "добав": 1845,
      "##ателя": 1846,
      "##ире": 1847,
      "##ева": 1848,
      "александ": 1849,
      "##уры": 1850,
      "##un": 1851,
      "кред": 1852,
      "первыи": 1853,
      "##рыв": 1854,
      "других": 1855,
      "организации": 1856,
      "##ent": 1857,
      "##ура": 1858,
      "телек": 1859,
      "наб": 1860,
      "бар": 1861,
      "вмест": 1862,
      "уточ": 1863,
      "##яд": 1864,
      "##ятель": 1865,
      "##ска": 1866,
      "##енныи": 1867,
      "поступ": 1868,
      "зар": 1869,
      "деся": 1870,
      "бор": 1871,
      "вв": 1872,
      "доступ": 1873,
      "##енко": 1874,
      "контра": 1875,
      "##олов": 1876,
      "выш": 1877,
      "##еф": 1878,
      "акции": 1879,
      "ап": 1880,
      "##ay": 1881,
      "глава": 1882,
      "мет": 1883,
      "кино": 1884,
      "##анию": 1885,
      "люб": 1886,
      "олимп": 1887,
      "поз": 1888,
      "вод": 1889,
      "автор": 1890,
      "числе": 1891,
      "ог": 1892,
      "намер": 1893,
      "##атр": 1894,
      "##глаш": 1895,
      "st": 1896,
      "##рать": 1897,
      "отнош": 1898,
      "сил": 1899,
      "настоящее": 1900,
      "вал": 1901,
      "##сть": 1902,
      "ал": 1903,
      "##тории": 1904,
      "сев": 1905,
      "этот": 1906,
      "работы": 1907,
      "ат": 1908,
      "европ": 1909,
      "##рои": 1910,
      "##ятся": 1911,
      "уп": 1912,
      "##ации": 1913,
      "##ir": 1914,
      "связи": 1915,
      "журналист": 1916,
      "##ализ": 1917,
      "##нее": 1918,
      "##im": 1919,
      "##онч": 1920,
      "##ику": 1921,
      "конкур": 1922,
      "тек": 1923,
      "##ыми": 1924,
      "##щит": 1925,
      "вопрос": 1926,
      "кн": 1927,
      "продолж": 1928,
      "банк": 1929,
      "включ": 1930,
      "ученые": 1931,
      "##елич": 1932,
      "проекта": 1933,
      "заключ": 1934,
      "треб": 1935,
      "уб": 1936,
      "цен": 1937,
      "##бу": 1938,
      "эта": 1939,
      "##оно": 1940,
      "трен": 1941,
      "##икован": 1942,
      "запу": 1943,
      "косм": 1944,
      "23": 1945,
      "##емон": 1946,
      "теме1": 1947,
      "среди": 1948,
      "ответ": 1949,
      "маг": 1950,
      "ни": 1951,
      "стало": 1952,
      "##ail": 1953,
      "##оруж": 1954,
      "##ством": 1955,
      "##альных": 1956,
      "увелич": 1957,
      "##ота": 1958,
      "##ип": 1959,
      "опубликован": 1960,
      "новости": 1961,
      "заверш": 1962,
      "ему": 1963,
      "##id": 1964,
      "ит": 1965,
      "студ": 1966,
      "необход": 1967,
      "##овании": 1968,
      "##ac": 1969,
      "##ентов": 1970,
      "##лены": 1971,
      "контракт": 1972,
      "состо": 1973,
      "##плат": 1974,
      "##ман": 1975,
      "бюдж": 1976,
      "##илось": 1977,
      "##раф": 1978,
      "услов": 1979,
      "##ио": 1980,
      "напис": 1981,
      "##отов": 1982,
      "да": 1983,
      "мер": 1984,
      "##мотр": 1985,
      "ном": 1986,
      "сез": 1987,
      "начале": 1988,
      "говорится": 1989,
      "момент": 1990,
      "фун": 1991,
      "##ag": 1992,
      "направ": 1993,
      "маш": 1994,
      "##руч": 1995,
      "своеи": 1996,
      "каче": 1997,
      "зд": 1998,
      "##роб": 1999,
      "##os": 2000,
      "зн": 2001,
      "##еред": 2002,
      "плат": 2003,
      "произош": 2004,
      "ож": 2005,
      "##book": 2006,
      "face": 2007,
      "##мин": 2008,
      "треть": 2009,
      "игра": 2010,
      "##енс": 2011,
      "##рон": 2012,
      "##сед": 2013,
      "##фер": 2014,
      "проб": 2015,
      "инвест": 2016,
      "##ot": 2017,
      "кл": 2018,
      "рег": 2019,
      "прошл": 2020,
      "редак": 2021,
      "терри": 2022,
      "женщ": 2023,
      "##нем": 2024,
      "##олог": 2025,
      "этои": 2026,
      "конце": 2027,
      "##леж": 2028,
      "##ице": 2029,
      "##циеи": 2030,
      "##атели": 2031,
      "26": 2032,
      "##иги": 2033,
      "28": 2034,
      "50": 2035,
      "часть": 2036,
      "директор": 2037,
      "пон": 2038,
      "ун": 2039,
      "facebook": 2040,
      "попу": 2041,
      "##гор": 2042,
      "собствен": 2043,
      "специ": 2044,
      "##отор": 2045,
      "##ia": 2046,
      "##сь": 2047,
      "докум": 2048,
      "трех": 2049,
      "объем": 2050,
      "##парат": 2051,
      "развит": 2052,
      "27": 2053,
      "тогда": 2054,
      "##рам": 2055,
      "составляет": 2056,
      "уров": 2057,
      "##ателеи": 2058,
      "указ": 2059,
      "##аком": 2060,
      "сборнои": 2061,
      "информации": 2062,
      "goo": 2063,
      "мно": 2064,
      "способ": 2065,
      "группы": 2066,
      "есть": 2067,
      "##пров": 2068,
      "прис": 2069,
      "крас": 2070,
      "прем": 2071,
      "##ела": 2072,
      "re": 2073,
      "##ское": 2074,
      "россииских": 2075,
      "известно": 2076,
      "согласно": 2077,
      "участие": 2078,
      "провод": 2079,
      "##нул": 2080,
      "телекан": 2081,
      "##gle": 2082,
      "размер": 2083,
      "##бом": 2084,
      "##идет": 2085,
      "##ечение": 2086,
      "##изнес": 2087,
      "торгов": 2088,
      "news": 2089,
      "министер": 2090,
      "##елем": 2091,
      "покуп": 2092,
      "релиз": 2093,
      "##те": 2094,
      "##руж": 2095,
      "скор": 2096,
      "полу": 2097,
      "игры": 2098,
      "велик": 2099,
      "вооруж": 2100,
      "кита": 2101,
      "an": 2102,
      "##oc": 2103,
      "##еле": 2104,
      "##рукт": 2105,
      "сми": 2106,
      "##ометров": 2107,
      "ави": 2108,
      "тысячи": 2109,
      "##ума": 2110,
      "ли": 2111,
      "нет": 2112,
      "##ur": 2113,
      "версии": 2114,
      "вес": 2115,
      "кораб": 2116,
      "куб": 2117,
      "##алов": 2118,
      "парт": 2119,
      "него": 2120,
      "некотор": 2121,
      "бизнес": 2122,
      "смог": 2123,
      "прев": 2124,
      "фотограф": 2125,
      "ус": 2126,
      "##них": 2127,
      "режисс": 2128,
      "измен": 2129,
      "##ряд": 2130,
      "##предел": 2131,
      "назыв": 2132,
      "ожид": 2133,
      "элект": 2134,
      "##мит": 2135,
      "##фф": 2136,
      "подч": 2137,
      "результате": 2138,
      "##ow": 2139,
      "деп": 2140,
      "рассказал": 2141,
      "ходе": 2142,
      "##раст": 2143,
      "приз": 2144,
      "всех": 2145,
      "google": 2146,
      "полит": 2147,
      "##ивает": 2148,
      "издание": 2149,
      "##ждан": 2150,
      "больше": 2151,
      "риа": 2152,
      "##ует": 2153,
      "перев": 2154,
      "##ig": 2155,
      "кат": 2156,
      "##инои": 2157,
      "##нок": 2158,
      "стала": 2159,
      "##изации": 2160,
      "выстав": 2161,
      "##адлеж": 2162,
      "сказал": 2163,
      "напр": 2164,
      "украин": 2165,
      "ед": 2166,
      "##pp": 2167,
      "ленты": 2168,
      "##ув": 2169,
      "##шим": 2170,
      "живот": 2171,
      "принадлеж": 2172,
      "нез": 2173,
      "агентство": 2174,
      "tw": 2175,
      "хот": 2176,
      "##готов": 2177,
      "образом": 2178,
      "граждан": 2179,
      "кажд": 2180,
      "29": 2181,
      "вход": 2182,
      "даль": 2183,
      "##ществен": 2184,
      "100": 2185,
      "##ких": 2186,
      "музык": 2187,
      "худ": 2188,
      "##ому": 2189,
      "пери": 2190,
      "сб": 2191,
      "##ess": 2192,
      "удалось": 2193,
      "зем": 2194,
      "министр": 2195,
      "популяр": 2196,
      "сод": 2197,
      "дог": 2198,
      "шест": 2199,
      "##иции": 2200,
      "другие": 2201,
      "минут": 2202,
      "автомоб": 2203,
      "знач": 2204,
      "сети": 2205,
      "##еру": 2206,
      "прос": 2207,
      "социаль": 2208,
      "##руз": 2209,
      "проход": 2210,
      "времени": 2211,
      "кли": 2212,
      "прест": 2213,
      "##ard": 2214,
      "использов": 2215,
      "отд": 2216,
      "высок": 2217,
      "сним": 2218,
      "##иях": 2219,
      "очеред": 2220,
      "системы": 2221,
      "баз": 2222,
      "##скую": 2223,
      "##остав": 2224,
      "##ектив": 2225,
      "of": 2226,
      "##иса": 2227,
      "##порт": 2228,
      "##ях": 2229,
      "##ток": 2230,
      "передает": 2231,
      "##екс": 2232,
      "##рах": 2233,
      "крупнеи": 2234,
      "мнению": 2235,
      "##лять": 2236,
      "наруш": 2237,
      "соответств": 2238,
      "кредит": 2239,
      "мас": 2240,
      "пог": 2241,
      "россииского": 2242,
      "##ub": 2243,
      "соверш": 2244,
      "своих": 2245,
      "##уст": 2246,
      "##итета": 2247,
      "##итинг": 2248,
      "распол": 2249,
      "групп": 2250,
      "(«": 2251,
      "##ари": 2252,
      "осн": 2253,
      "получил": 2254,
      "украины": 2255,
      "люд": 2256,
      "##иев": 2257,
      "##ивать": 2258,
      "мужч": 2259,
      "##ербур": 2260,
      "области": 2261,
      "петербур": 2262,
      "##пон": 2263,
      "pr": 2264,
      "##ябре": 2265,
      "своем": 2266,
      "предполаг": 2267,
      "##нолог": 2268,
      "##тору": 2269,
      "количе": 2270,
      "себя": 2271,
      "бал": 2272,
      "устрои": 2273,
      "дор": 2274,
      "лид": 2275,
      "потреб": 2276,
      "регу": 2277,
      "подчерк": 2278,
      "север": 2279,
      "тон": 2280,
      "отправ": 2281,
      "президента": 2282,
      "летнии": 2283,
      "##овал": 2284,
      "2009": 2285,
      "именно": 2286,
      "бер": 2287,
      "##гам": 2288,
      "арт": 2289,
      "альбом": 2290,
      "соглаш": 2291,
      "новыи": 2292,
      "следующ": 2293,
      "усп": 2294,
      "##рет": 2295,
      "##скому": 2296,
      "##рес": 2297,
      "##анием": 2298,
      "та": 2299,
      "##тои": 2300,
      "twit": 2301,
      "там": 2302,
      "##прост": 2303,
      "##пит": 2304,
      "миров": 2305,
      "##шая": 2306,
      "выб": 2307,
      "вместе": 2308,
      "аэ": 2309,
      "##ически": 2310,
      "газета": 2311,
      "##шем": 2312,
      "специаль": 2313,
      "стоимость": 2314,
      "европеи": 2315,
      "точ": 2316,
      "задерж": 2317,
      "утвер": 2318,
      "##ранич": 2319,
      "срав": 2320,
      "##ально": 2321,
      "владимир": 2322,
      "вост": 2323,
      "дмит": 2324,
      "лег": 2325,
      "##ач": 2326,
      "зад": 2327,
      "жел": 2328,
      "##бе": 2329,
      "право": 2330,
      "дополн": 2331,
      "инст": 2332,
      "должен": 2333,
      "премьер": 2334,
      "тв": 2335,
      "слож": 2336,
      "тасс": 2337,
      "эти": 2338,
      "однои": 2339,
      "содерж": 2340,
      "##тон": 2341,
      "приш": 2342,
      "##рев": 2343,
      "четыре": 2344,
      "власти": 2345,
      "пес": 2346,
      "таким": 2347,
      "россиискои": 2348,
      "twitter": 2349,
      "видео": 2350,
      "государствен": 2351,
      "обяз": 2352,
      "##чит": 2353,
      "##кции": 2354,
      "аппарат": 2355,
      "нор": 2356,
      "одного": 2357,
      "##ицы": 2358,
      "##ические": 2359,
      "##лок": 2360,
      "ант": 2361,
      "ден": 2362,
      "##эн": 2363,
      "интерф": 2364,
      "обесп": 2365,
      "второи": 2366,
      "com": 2367,
      "впер": 2368,
      "##ph": 2369,
      "ситу": 2370,
      "тра": 2371,
      "##атов": 2372,
      "боев": 2373,
      "чемпионата": 2374,
      "качестве": 2375,
      "##хран": 2376,
      "представитель": 2377,
      "##оров": 2378,
      "##ард": 2379,
      "обрат": 2380,
      "##тому": 2381,
      "почти": 2382,
      "##спорт": 2383,
      "##пром": 2384,
      "##арии": 2385,
      "должны": 2386,
      "вн": 2387,
      "готов": 2388,
      "##ищ": 2389,
      "##смен": 2390,
      "прог": 2391,
      "отмечает": 2392,
      "мног": 2393,
      "возд": 2394,
      "случае": 2395,
      "##альные": 2396,
      "города": 2397,
      "команды": 2398,
      "издания": 2399,
      "затем": 2400,
      "суп": 2401,
      "##скор": 2402,
      "ch": 2403,
      "##орд": 2404,
      "москве": 2405,
      "федер": 2406,
      "##ировал": 2407,
      "анд": 2408,
      "течение": 2409,
      "##ланд": 2410,
      "##чь": 2411,
      "кварт": 2412,
      "великобр": 2413,
      "##сон": 2414,
      "серии": 2415,
      "##ниж": 2416,
      "технолог": 2417,
      "сем": 2418,
      "проф": 2419,
      "реитинг": 2420,
      "##неф": 2421,
      "открыт": 2422,
      "ряд": 2423,
      "размещ": 2424,
      "рус": 2425,
      "пре": 2426,
      "##оду": 2427,
      "нес": 2428,
      "##простран": 2429,
      "хол": 2430,
      "##ft": 2431,
      "нар": 2432,
      "##се": 2433,
      "приобр": 2434,
      "проис": 2435,
      "ближа": 2436,
      "ближаиш": 2437,
      "2008": 2438,
      "лонд": 2439,
      "представители": 2440,
      "##лена": 2441,
      "много": 2442,
      "топ": 2443,
      "япон": 2444,
      "##ками": 2445,
      "##ял": 2446,
      "публ": 2447,
      "пять": 2448,
      "##ащ": 2449,
      "##ображ": 2450,
      "пере": 2451,
      "лишь": 2452,
      "худож": 2453,
      "##ra": 2454,
      "предостав": 2455,
      "контр": 2456,
      "##истра": 2457,
      "особ": 2458,
      "совет": 2459,
      "футболь": 2460,
      "35": 2461,
      "##ut": 2462,
      "которое": 2463,
      "##ницу": 2464,
      "валют": 2465,
      "40": 2466,
      "прил": 2467,
      "россиян": 2468,
      "вои": 2469,
      "мон": 2470,
      "франц": 2471,
      "александр": 2472,
      "сою": 2473,
      "станет": 2474,
      "распростран": 2475,
      "англ": 2476,
      "рубля": 2477,
      "##неш": 2478,
      "куп": 2479,
      "##пании": 2480,
      "##енз": 2481,
      "нового": 2482,
      "пользователеи": 2483,
      "you": 2484,
      "##бит": 2485,
      "31": 2486,
      "находится": 2487,
      "стали": 2488,
      "##град": 2489,
      "ракет": 2490,
      "пис": 2491,
      "сцен": 2492,
      "##имер": 2493,
      "##ировали": 2494,
      "специалист": 2495,
      "великобрит": 2496,
      "##пора": 2497,
      "потер": 2498,
      "##реш": 2499,
      "ром": 2500,
      "срок": 2501,
      "##лиц": 2502,
      "испыт": 2503,
      "интерфак": 2504,
      "##вые": 2505,
      "##истов": 2506,
      "деятель": 2507,
      "##юс": 2508,
      "защит": 2509,
      "выпуск": 2510,
      "итогам": 2511,
      "##ствия": 2512,
      "экран": 2513,
      "встреч": 2514,
      "подтвер": 2515,
      "россиискии": 2516,
      "очень": 2517,
      "бес": 2518,
      "став": 2519,
      "строитель": 2520,
      "##год": 2521,
      "##овых": 2522,
      "игрок": 2523,
      "закры": 2524,
      "территории": 2525,
      "би": 2526,
      "дав": 2527,
      "начала": 2528,
      "москвы": 2529,
      "сообщалось": 2530,
      "звезд": 2531,
      "генер": 2532,
      "поиск": 2533,
      "банка": 2534,
      "назнач": 2535,
      "новои": 2536,
      "своего": 2537,
      "спортсмен": 2538,
      "период": 2539,
      "впервые": 2540,
      "гран": 2541,
      "##ическии": 2542,
      "законо": 2543,
      "фонд": 2544,
      "##лег": 2545,
      "##iv": 2546,
      "##онт": 2547,
      "верто": 2548,
      "телев": 2549,
      "француз": 2550,
      "каз": 2551,
      "нью": 2552,
      "семь": 2553,
      "##аря": 2554,
      "##няя": 2555,
      "##ющии": 2556,
      "клуб": 2557,
      "##матр": 2558,
      "##иверс": 2559,
      "клуба": 2560,
      "необходим": 2561,
      "##опас": 2562,
      "средств": 2563,
      "магаз": 2564,
      "например": 2565,
      "пев": 2566,
      "определ": 2567,
      "энер": 2568,
      "работу": 2569,
      "блог": 2570,
      "олимпии": 2571,
      "app": 2572,
      "асс": 2573,
      "##глав": 2574,
      "##ерв": 2575,
      "изображ": 2576,
      "выпуст": 2577,
      "##торую": 2578,
      "вол": 2579,
      "##оу": 2580,
      "конс": 2581,
      "огранич": 2582,
      "текущ": 2583,
      "сег": 2584,
      "нуж": 2585,
      "##сим": 2586,
      "##ея": 2587,
      "##овали": 2588,
      "части": 2589,
      "релизе": 2590,
      "ла": 2591,
      "роб": 2592,
      "новых": 2593,
      "молод": 2594,
      "##ыс": 2595,
      "различ": 2596,
      "человека": 2597,
      "##сирован": 2598,
      "подоб": 2599,
      "##люд": 2600,
      "искус": 2601,
      "привод": 2602,
      "мире": 2603,
      "##инам": 2604,
      "преступ": 2605,
      "de": 2606,
      "##инга": 2607,
      "стороны": 2608,
      "##асса": 2609,
      "помимо": 2610,
      "регион": 2611,
      "коммер": 2612,
      "провер": 2613,
      "верс": 2614,
      "помощью": 2615,
      "##ъем": 2616,
      "отношении": 2617,
      "обеспеч": 2618,
      "бил": 2619,
      "жиз": 2620,
      "##служ": 2621,
      "сообщении": 2622,
      "одним": 2623,
      "даже": 2624,
      "##лял": 2625,
      "осу": 2626,
      "налог": 2627,
      "тот": 2628,
      "##елю": 2629,
      "арест": 2630,
      "агентства": 2631,
      "договор": 2632,
      "##лон": 2633,
      "данные": 2634,
      "##стро": 2635,
      "пож": 2636,
      "фильма": 2637,
      "##би": 2638,
      "стар": 2639,
      "процесс": 2640,
      "ди": 2641,
      "##лись": 2642,
      "##енте": 2643,
      "универс": 2644,
      "роль": 2645,
      "##лено": 2646,
      "интерв": 2647,
      "культ": 2648,
      "выв": 2649,
      "достиг": 2650,
      "##ation": 2651,
      "интерес": 2652,
      "##зы": 2653,
      "##bo": 2654,
      "мик": 2655,
      "транспорт": 2656,
      "##ивается": 2657,
      "выиг": 2658,
      "te": 2659,
      "##оприят": 2660,
      "##енным": 2661,
      "совмест": 2662,
      "либ": 2663,
      "пох": 2664,
      "запис": 2665,
      "спис": 2666,
      "##and": 2667,
      "поэ": 2668,
      "группа": 2669,
      "информацию": 2670,
      "федера": 2671,
      "мероприят": 2672,
      "##лед": 2673,
      "разреш": 2674,
      "мих": 2675,
      "##ерх": 2676,
      "пром": 2677,
      "##ирует": 2678,
      "##нуть": 2679,
      "bl": 2680,
      "аб": 2681,
      "##ествен": 2682,
      "##кии": 2683,
      "жизни": 2684,
      "ru": 2685,
      "авто": 2686,
      "##едения": 2687,
      "дело": 2688,
      "рес": 2689,
      "##кат": 2690,
      "всем": 2691,
      "великобритании": 2692,
      "шв": 2693,
      "##естив": 2694,
      "безопас": 2695,
      "запрещ": 2696,
      "очередь": 2697,
      "ноч": 2698,
      "##звест": 2699,
      "диск": 2700,
      "##итер": 2701,
      "две": 2702,
      "китаи": 2703,
      "##ником": 2704,
      "инф": 2705,
      "программы": 2706,
      "##геи": 2707,
      "##торов": 2708,
      "предприят": 2709,
      "уголов": 2710,
      "уточня": 2711,
      "суб": 2712,
      "##ьют": 2713,
      "несколь": 2714,
      "зр": 2715,
      "ман": 2716,
      "##аи": 2717,
      "##ерн": 2718,
      "менее": 2719,
      "един": 2720,
      "центр": 2721,
      "сниж": 2722,
      "сообщили": 2723,
      "моб": 2724,
      "смер": 2725,
      "юж": 2726,
      "##ывать": 2727,
      "остав": 2728,
      "##руго": 2729,
      "англии": 2730,
      "гл": 2731,
      "предлаг": 2732,
      "сери": 2733,
      "##ающих": 2734,
      "исследов": 2735,
      "ради": 2736,
      "километров": 2737,
      "прилож": 2738,
      "ресур": 2739,
      "хок": 2740,
      "##чик": 2741,
      "##озя": 2742,
      "наш": 2743,
      "физ": 2744,
      "пример": 2745,
      "запрет": 2746,
      "банков": 2747,
      "сотрудн": 2748,
      "неизвест": 2749,
      "##one": 2750,
      "дома": 2751,
      "##енции": 2752,
      "новые": 2753,
      "##ощад": 2754,
      "##лагод": 2755,
      "apple": 2756,
      "##рад": 2757,
      "старт": 2758,
      "подготов": 2759,
      "приним": 2760,
      "##быт": 2761,
      "тов": 2762,
      "медвед": 2763,
      "бра": 2764,
      "##сколь": 2765,
      "##ительных": 2766,
      "первои": 2767,
      "мал": 2768,
      "располож": 2769,
      "веч": 2770,
      "па": 2771,
      "##ици": 2772,
      "##яет": 2773,
      "добавил": 2774,
      "##лия": 2775,
      "##прин": 2776,
      "##истр": 2777,
      "##форм": 2778,
      "проблем": 2779,
      "внут": 2780,
      "хор": 2781,
      "##ct": 2782,
      "площад": 2783,
      "газа": 2784,
      "основан": 2785,
      "интервью": 2786,
      "лич": 2787,
      "ут": 2788,
      "##ian": 2789,
      "##ros": 2790,
      "##ствует": 2791,
      "##ню": 2792,
      "##оды": 2793,
      "аэро": 2794,
      "людеи": 2795,
      "поясн": 2796,
      "##илл": 2797,
      "корпора": 2798,
      "последние": 2799,
      "максим": 2800,
      "обороны": 2801,
      "мобиль": 2802,
      "мэ": 2803,
      "нос": 2804,
      "посколь": 2805,
      "##ноз": 2806,
      "кто": 2807,
      "отлич": 2808,
      "газпром": 2809,
      "интерфакс": 2810,
      "##нев": 2811,
      "##вор": 2812,
      "вызв": 2813,
      "коп": 2814,
      "##иста": 2815,
      "сор": 2816,
      "сок": 2817,
      "198": 2818,
      "##лин": 2819,
      "##си": 2820,
      "россииские": 2821,
      "поскольку": 2822,
      "респ": 2823,
      "выполн": 2824,
      "as": 2825,
      "чего": 2826,
      "##ват": 2827,
      "##кин": 2828,
      "объясн": 2829,
      "сим": 2830,
      "##вид": 2831,
      "доход": 2832,
      "режим": 2833,
      "\")": 2834,
      "стране": 2835,
      "исключ": 2836,
      "press": 2837,
      "##ями": 2838,
      "четырех": 2839,
      "планирует": 2840,
      "часов": 2841,
      "перег": 2842,
      "возможность": 2843,
      "игр": 2844,
      "джон": 2845,
      "истории": 2846,
      "идет": 2847,
      "##едель": 2848,
      "##альная": 2849,
      "самых": 2850,
      "заказ": 2851,
      "коллек": 2852,
      "##up": 2853,
      "##aily": 2854,
      "гар": 2855,
      "официальном": 2856,
      "возглав": 2857,
      "средства": 2858,
      "дэ": 2859,
      "лиги": 2860,
      "##рь": 2861,
      "##кам": 2862,
      "наиб": 2863,
      "неб": 2864,
      "##ты": 2865,
      "##страл": 2866,
      "сохран": 2867,
      "##торы": 2868,
      "расслед": 2869,
      "управления": 2870,
      "раст": 2871,
      "##яч": 2872,
      "австрал": 2873,
      "должна": 2874,
      "посв": 2875,
      "сергеи": 2876,
      "благод": 2877,
      "##анк": 2878,
      "##про": 2879,
      "##ters": 2880,
      "эксперт": 2881,
      "либо": 2882,
      "дня": 2883,
      "закон": 2884,
      "фл": 2885,
      "прек": 2886,
      "##итет": 2887,
      "##роз": 2888,
      "этих": 2889,
      "планируется": 2890,
      "книг": 2891,
      "нал": 2892,
      "пись": 2893,
      "##рен": 2894,
      "проидет": 2895,
      "##план": 2896,
      "аф": 2897,
      "админ": 2898,
      "кас": 2899,
      "актер": 2900,
      "герм": 2901,
      "правительство": 2902,
      "daily": 2903,
      "бир": 2904,
      "##аств": 2905,
      "##ица": 2906,
      "##ница": 2907,
      "друго": 2908,
      "##аил": 2909,
      "которую": 2910,
      "владель": 2911,
      "опубликов": 2912,
      "иор": 2913,
      "шк": 2914,
      "##говор": 2915,
      "##реи": 2916,
      "##ового": 2917,
      "##уре": 2918,
      "первого": 2919,
      "##art": 2920,
      "##леч": 2921,
      "речь": 2922,
      "энерг": 2923,
      "осуществ": 2924,
      "вырос": 2925,
      "тепер": 2926,
      "пад": 2927,
      "##анных": 2928,
      "теперь": 2929,
      "вним": 2930,
      "факт": 2931,
      "##лов": 2932,
      "##фл": 2933,
      "##алии": 2934,
      "##лара": 2935,
      "являются": 2936,
      "##ube": 2937,
      "ук": 2938,
      "цел": 2939,
      "коммент": 2940,
      "смарт": 2941,
      "дмитрии": 2942,
      "лу": 2943,
      "##ерг": 2944,
      "##исим": 2945,
      "подоз": 2946,
      "своб": 2947,
      "заявили": 2948,
      "##унд": 2949,
      "нефти": 2950,
      "утвержд": 2951,
      "##20": 2952,
      "движ": 2953,
      "рынке": 2954,
      "ро": 2955,
      "прет": 2956,
      "##ительные": 2957,
      "аналог": 2958,
      "отмечается": 2959,
      "браз": 2960,
      "стат": 2961,
      "выд": 2962,
      "компьют": 2963,
      "десят": 2964,
      "введ": 2965,
      "##od": 2966,
      "##цид": 2967,
      "европы": 2968,
      "список": 2969,
      "ле": 2970,
      "##жи": 2971,
      "никак": 2972,
      "цер": 2973,
      "##утств": 2974,
      "деньги": 2975,
      "счетом": 2976,
      "примерно": 2977,
      "##гр": 2978,
      "##кого": 2979,
      "##енная": 2980,
      "отмен": 2981,
      "стр": 2982,
      "##ностран": 2983,
      "иностран": 2984,
      "##цеи": 2985,
      "##ri": 2986,
      "изб": 2987,
      "##жды": 2988,
      "полож": 2989,
      "назад": 2990,
      "yout": 2991,
      "##лся": 2992,
      "годы": 2993,
      "##пада": 2994,
      "##ски": 2995,
      "##олев": 2996,
      "такие": 2997,
      "соврем": 2998,
      "смартф": 2999,
      "гре": 3000,
      "оз": 3001,
      "пара": 3002,
      "сет": 3003,
      "съем": 3004,
      "обществен": 3005,
      "youtube": 3006,
      "метров": 3007,
      "##мо": 3008,
      "экспер": 3009,
      "соответствующ": 3010,
      "##сона": 3011,
      "обращ": 3012,
      "нан": 3013,
      "##арь": 3014,
      "сокра": 3015,
      "роснеф": 3016,
      "одно": 3017,
      "конст": 3018,
      "получить": 3019,
      "транс": 3020,
      "автомобил": 3021,
      "сокращ": 3022,
      "пенс": 3023,
      "##чив": 3024,
      "##oft": 3025,
      "бюджет": 3026,
      "посвящ": 3027,
      "##одня": 3028,
      "собои": 3029,
      "имени": 3030,
      "уточн": 3031,
      "количество": 3032,
      "##пос": 3033,
      "##мов": 3034,
      "##ывают": 3035,
      "матче": 3036,
      "помощи": 3037,
      "##скими": 3038,
      "##отив": 3039,
      "инцид": 3040,
      "существ": 3041,
      "пятницу": 3042,
      "состоится": 3043,
      "днеи": 3044,
      "##оту": 3045,
      "арм": 3046,
      "услу": 3047,
      "пыт": 3048,
      "силь": 3049,
      "##охран": 3050,
      "премии": 3051,
      "60": 3052,
      "власт": 3053,
      "##окс": 3054,
      "форм": 3055,
      "##енн": 3056,
      "ассо": 3057,
      "сегодня": 3058,
      "##ыд": 3059,
      "нам": 3060,
      "таких": 3061,
      "##all": 3062,
      "##икации": 3063,
      "бывшии": 3064,
      "хозя": 3065,
      "##уда": 3066,
      "##ждения": 3067,
      "##ine": 3068,
      "шесть": 3069,
      "рест": 3070,
      "##рид": 3071,
      "структ": 3072,
      "составе": 3073,
      "полицеи": 3074,
      "источник": 3075,
      "##того": 3076,
      "отв": 3077,
      "##ограм": 3078,
      "главныи": 3079,
      "##шт": 3080,
      "tim": 3081,
      "доллара": 3082,
      "участв": 3083,
      "серед": 3084,
      "объект": 3085,
      "теат": 3086,
      "благодаря": 3087,
      "лин": 3088,
      "будущ": 3089,
      "объедин": 3090,
      "слова": 3091,
      "мень": 3092,
      "##енном": 3093,
      "санкт": 3094,
      "тонн": 3095,
      "ar": 3096,
      "нев": 3097,
      "стад": 3098,
      "##лением": 3099,
      "##ирования": 3100,
      "теме0": 3101,
      "напом": 3102,
      "эн": 3103,
      "##укт": 3104,
      "##ak": 3105,
      "##um": 3106,
      "##енит": 3107,
      "теме00": 3108,
      "фотографии": 3109,
      "##ышлен": 3110,
      "##ождения": 3111,
      "##ечат": 3112,
      "посет": 3113,
      "раск": 3114,
      "ба": 3115,
      "фестив": 3116,
      "полов": 3117,
      "месте": 3118,
      "самолетов": 3119,
      "нескольких": 3120,
      "##авшии": 3121,
      "обыч": 3122,
      "телеф": 3123,
      "##исты": 3124,
      "крит": 3125,
      "продукт": 3126,
      "голос": 3127,
      "официальныи": 3128,
      "франции": 3129,
      "понедель": 3130,
      "австралии": 3131,
      "эту": 3132,
      "вертолет": 3133,
      "республ": 3134,
      "##анда": 3135,
      "##альным": 3136,
      "продук": 3137,
      "канад": 3138,
      "##пуст": 3139,
      "переговор": 3140,
      "член": 3141,
      "##ывается": 3142,
      "пользователя": 3143,
      "ассоци": 3144,
      "##bc": 3145,
      "одна": 3146,
      "повыш": 3147,
      "примен": 3148,
      "развития": 3149,
      "ти": 3150,
      "##уэ": 3151,
      "##ne": 3152,
      "##антов": 3153,
      "попы": 3154,
      "##илот": 3155,
      "опас": 3156,
      "гр": 3157,
      "##ожет": 3158,
      "италь": 3159,
      "гал": 3160,
      "уз": 3161,
      "цель": 3162,
      "получила": 3163,
      "замет": 3164,
      "модель": 3165,
      "девуш": 3166,
      "##ака": 3167,
      "расход": 3168,
      "поэтому": 3169,
      "36": 3170,
      "пам": 3171,
      "##анные": 3172,
      "соц": 3173,
      "индии": 3174,
      "вице": 3175,
      "##оволь": 3176,
      "картины": 3177,
      "борь": 3178,
      "mic": 3179,
      "пал": 3180,
      "роз": 3181,
      "##ob": 3182,
      "самым": 3183,
      "конца": 3184,
      "ожидается": 3185,
      "еи": 3186,
      "##дут": 3187,
      "##op": 3188,
      "первом": 3189,
      "2007": 3190,
      "сотрудники": 3191,
      "службы": 3192,
      "фунтов": 3193,
      "ситуа": 3194,
      "понедельник": 3195,
      "sp": 3196,
      "ано": 3197,
      "вор": 3198,
      "слу": 3199,
      "фон": 3200,
      "##аточ": 3201,
      "годах": 3202,
      "двиг": 3203,
      "главы": 3204,
      "голов": 3205,
      "##над": 3206,
      "провел": 3207,
      "##аракт": 3208,
      "карь": 3209,
      "немец": 3210,
      "портал": 3211,
      "национальнои": 3212,
      "and": 3213,
      "##стран": 3214,
      "##дач": 3215,
      "брон": 3216,
      "деиствия": 3217,
      "подтверд": 3218,
      "(\"": 3219,
      "##лась": 3220,
      "оконч": 3221,
      "истреб": 3222,
      "продажу": 3223,
      "##илии": 3224,
      "алексеи": 3225,
      "федерации": 3226,
      ".\"": 3227,
      "аз": 3228,
      "##ab": 3229,
      "##ov": 3230,
      "авиа": 3231,
      "197": 3232,
      "сентябре": 3233,
      "число": 3234,
      "имеет": 3235,
      "##ыдущ": 3236,
      "аук": 3237,
      "эп": 3238,
      "##ul": 3239,
      "##ers": 3240,
      "##сте": 3241,
      "предыдущ": 3242,
      "##разу": 3243,
      "##ill": 3244,
      "раион": 3245,
      "нефт": 3246,
      "##орож": 3247,
      "##тором": 3248,
      "рекорд": 3249,
      "##проект": 3250,
      "эф": 3251,
      "данных": 3252,
      "техн": 3253,
      "прогноз": 3254,
      "##if": 3255,
      "##енное": 3256,
      "##ающии": 3257,
      "сниз": 3258,
      "тяж": 3259,
      "начал": 3260,
      "постанов": 3261,
      "полиции": 3262,
      "месяцев": 3263,
      "барр": 3264,
      "вторник": 3265,
      "матча": 3266,
      "соцс": 3267,
      "сир": 3268,
      "##щик": 3269,
      "##яться": 3270,
      "информация": 3271,
      "считает": 3272,
      "правительства": 3273,
      "попыт": 3274,
      "##ap": 3275,
      "##ске": 3276,
      "сумму": 3277,
      "##лице": 3278,
      "##уру": 3279,
      "##уется": 3280,
      "возв": 3281,
      "председ": 3282,
      "марте": 3283,
      "санкции": 3284,
      "шоу": 3285,
      "##иона": 3286,
      "прид": 3287,
      "науч": 3288,
      "##никами": 3289,
      "принят": 3290,
      "убии": 3291,
      "сообщила": 3292,
      "арх": 3293,
      "мае": 3294,
      "наблюд": 3295,
      "размере": 3296,
      "##анка": 3297,
      "нав": 3298,
      "##ону": 3299,
      "##авать": 3300,
      "путин": 3301,
      "##ане": 3302,
      "позд": 3303,
      "вош": 3304,
      "продажи": 3305,
      "подчеркнул": 3306,
      "45": 3307,
      "вари": 3308,
      "##сков": 3309,
      "заявила": 3310,
      "##ентом": 3311,
      "выясн": 3312,
      "такои": 3313,
      "свое": 3314,
      "##ингов": 3315,
      "январе": 3316,
      "некоторые": 3317,
      "приводит": 3318,
      "безопасности": 3319,
      "итальян": 3320,
      "труд": 3321,
      "собира": 3322,
      "среду": 3323,
      "городе": 3324,
      "рынка": 3325,
      "конфер": 3326,
      "авиаком": 3327,
      "пак": 3328,
      "характ": 3329,
      "##одов": 3330,
      "##лом": 3331,
      "##og": 3332,
      "отс": 3333,
      "секрет": 3334,
      "»).": 3335,
      "##осто": 3336,
      "##щества": 3337,
      "работе": 3338,
      "##ертв": 3339,
      "телеканал": 3340,
      "500": 3341,
      "запад": 3342,
      "вен": 3343,
      "##ье": 3344,
      "отдел": 3345,
      "##уди": 3346,
      "нужно": 3347,
      "##цов": 3348,
      "полностью": 3349,
      "исследования": 3350,
      "наград": 3351,
      "событ": 3352,
      "первые": 3353,
      "последнии": 3354,
      "имя": 3355,
      "пользователи": 3356,
      "погиб": 3357,
      "ге": 3358,
      "спут": 3359,
      "удал": 3360,
      "экспорт": 3361,
      "прошлого": 3362,
      "электрон": 3363,
      "коммерс": 3364,
      "страх": 3365,
      "название": 3366,
      "професс": 3367,
      "эфф": 3368,
      "##олее": 3369,
      "##ека": 3370,
      "пяти": 3371,
      "300": 3372,
      "сразу": 3373,
      "##бур": 3374,
      "##лаин": 3375,
      "##альном": 3376,
      "##аниеи": 3377,
      "производства": 3378,
      "вклад": 3379,
      "##еше": 3380,
      "##чет": 3381,
      "предус": 3382,
      "миним": 3383,
      "работает": 3384,
      "организ": 3385,
      "##иад": 3386,
      "заплан": 3387,
      "##ляют": 3388,
      "расп": 3389,
      "актр": 3390,
      "четверг": 3391,
      "бесп": 3392,
      "гру": 3393,
      "мв": 3394,
      "чинов": 3395,
      "##ап": 3396,
      "##аков": 3397,
      "годов": 3398,
      "кры": 3399,
      "ноябре": 3400,
      "наиболее": 3401,
      "пасса": 3402,
      "##ту": 3403,
      "##кс": 3404,
      "##ran": 3405,
      "дела": 3406,
      "декабре": 3407,
      "причинои": 3408,
      "студии": 3409,
      "министерство": 3410,
      "режиссер": 3411,
      "пун": 3412,
      "корр": 3413,
      "гост": 3414,
      "динам": 3415,
      "##ci": 3416,
      "нее": 3417,
      "сумма": 3418,
      "общеи": 3419,
      "меня": 3420,
      "самолет": 3421,
      "контрол": 3422,
      "ним": 3423,
      "##ду": 3424,
      "спас": 3425,
      "прибы": 3426,
      "получили": 3427,
      "сотрудников": 3428,
      "насел": 3429,
      "пассаж": 3430,
      "##ою": 3431,
      "##ik": 3432,
      "##анта": 3433,
      "##ительнои": 3434,
      "постро": 3435,
      "##лось": 3436,
      "##ивают": 3437,
      "осв": 3438,
      "составила": 3439,
      "ведущ": 3440,
      "##дер": 3441,
      "##ber": 3442,
      "практ": 3443,
      "##ностеи": 3444,
      "капит": 3445,
      "##ack": 3446,
      "##нес": 3447,
      "##ателем": 3448,
      "##ратить": 3449,
      "##оян": 3450,
      "бренд": 3451,
      "стоит": 3452,
      "аналогич": 3453,
      "al": 3454,
      "язы": 3455,
      "июне": 3456,
      "##ающие": 3457,
      "документ": 3458,
      "внимание": 3459,
      "борт": 3460,
      "мир": 3461,
      "оруж": 3462,
      "ска": 3463,
      "цб": 3464,
      "##рор": 3465,
      "##ическим": 3466,
      "пс": 3467,
      "пит": 3468,
      "##яли": 3469,
      "##итут": 3470,
      "##ственно": 3471,
      "работа": 3472,
      "белор": 3473,
      "00": 3474,
      "for": 3475,
      "##хл": 3476,
      "поряд": 3477,
      "заг": 3478,
      "##дают": 3479,
      "##ющих": 3480,
      "##ence": 3481,
      "диза": 3482,
      "тро": 3483,
      "##uters": 3484,
      "##альное": 3485,
      "россииская": 3486,
      "реал": 3487,
      "возраст": 3488,
      "вещ": 3489,
      "##ительныи": 3490,
      "газеты": 3491,
      "джеи": 3492,
      "предполож": 3493,
      "micros": 3494,
      "дал": 3495,
      "сю": 3496,
      "адрес": 3497,
      "смогут": 3498,
      "главного": 3499,
      "университета": 3500,
      "сотрудниче": 3501,
      "пенсион": 3502,
      "фиг": 3503,
      "reuters": 3504,
      "пункт": 3505,
      "пласт": 3506,
      "##ировала": 3507,
      "замест": 3508,
      "типа": 3509,
      "ль": 3510,
      "прик": 3511,
      "##ива": 3512,
      "соглашение": 3513,
      "крат": 3514,
      "##мет": 3515,
      "прям": 3516,
      "##ционнои": 3517,
      "##вард": 3518,
      "##мотря": 3519,
      "лиценз": 3520,
      "тренер": 3521,
      "написал": 3522,
      "##иям": 3523,
      "возник": 3524,
      "нефть": 3525,
      "ввс": 3526,
      "многие": 3527,
      "холд": 3528,
      "запланирован": 3529,
      "mar": 3530,
      "##ыг": 3531,
      "##станов": 3532,
      "##ары": 3533,
      "люди": 3534,
      "появилась": 3535,
      "белорус": 3536,
      "пи": 3537,
      "тю": 3538,
      "##поль": 3539,
      "##эк": 3540,
      "##икс": 3541,
      "работать": 3542,
      "ив": 3543,
      "##ствии": 3544,
      "свидет": 3545,
      "чемпионат": 3546,
      "рекламы": 3547,
      "этим": 3548,
      "несмотря": 3549,
      "ass": 3550,
      "microsoft": 3551,
      "хран": 3552,
      "наде": 3553,
      "##ителем": 3554,
      "##кад": 3555,
      "##роч": 3556,
      "суда": 3557,
      "польз": 3558,
      "операции": 3559,
      "дорог": 3560,
      "происход": 3561,
      "вок": 3562,
      "шир": 3563,
      "##уг": 3564,
      "##шее": 3565,
      "##анныи": 3566,
      "анал": 3567,
      "никол": 3568,
      "топлив": 3569,
      "середине": 3570,
      "32": 3571,
      "70": 3572,
      "##остью": 3573,
      "подраз": 3574,
      "трилли": 3575,
      "решения": 3576,
      "акцион": 3577,
      "вышел": 3578,
      "##igh": 3579,
      "##сом": 3580,
      "##авших": 3581,
      "составит": 3582,
      "остров": 3583,
      "сравнению": 3584,
      "80": 3585,
      "ам": 3586,
      "блок": 3587,
      "##щиков": 3588,
      "продюс": 3589,
      "196": 3590,
      "##our": 3591,
      "##зор": 3592,
      "достав": 3593,
      "американскии": 3594,
      "государства": 3595,
      "ракеты": 3596,
      "ведомства": 3597,
      "##чиков": 3598,
      "нак": 3599,
      "##авно": 3600,
      "штраф": 3601,
      "считают": 3602,
      "позже": 3603,
      "институт": 3604,
      "##рач": 3605,
      "##ательства": 3606,
      "данныи": 3607,
      "путеше": 3608,
      "times": 3609,
      "внеш": 3610,
      "лед": 3611,
      "сеть": 3612,
      "таб": 3613,
      "##ениях": 3614,
      "##ющие": 3615,
      "журнале": 3616,
      "pl": 3617,
      "##евои": 3618,
      "отметили": 3619,
      "бума": 3620,
      "##оят": 3621,
      "##цем": 3622,
      "##енную": 3623,
      "##има": 3624,
      "выдел": 3625,
      "##альную": 3626,
      "свет": 3627,
      "коллект": 3628,
      "##ленных": 3629,
      "феврале": 3630,
      "отдель": 3631,
      "технологии": 3632,
      "киев": 3633,
      "прих": 3634,
      "перес": 3635,
      "предприн": 3636,
      "##ind": 3637,
      "правоохран": 3638,
      "союза": 3639,
      "сня": 3640,
      "изра": 3641,
      "пострад": 3642,
      "система": 3643,
      "себе": 3644,
      "##oci": 3645,
      "депут": 3646,
      "использовать": 3647,
      "важ": 3648,
      "син": 3649,
      "цены": 3650,
      "##шую": 3651,
      "выидет": 3652,
      "апреле": 3653,
      "спортив": 3654,
      "##шир": 3655,
      "##ge": 3656,
      "##оты": 3657,
      "##спектив": 3658,
      "совета": 3659,
      "большои": 3660,
      "принято": 3661,
      "администра": 3662,
      "церемон": 3663,
      "реи": 3664,
      "##оф": 3665,
      "##кие": 3666,
      "##лиз": 3667,
      "закуп": 3668,
      "права": 3669,
      "представителя": 3670,
      "единствен": 3671,
      "жизн": 3672,
      "як": 3673,
      "обсу": 3674,
      "раза": 3675,
      "реб": 3676,
      "2006": 3677,
      "программ": 3678,
      "##по": 3679,
      "##av": 3680,
      "##ie": 3681,
      "выраз": 3682,
      "крым": 3683,
      "хорош": 3684,
      "сорев": 3685,
      "фир": 3686,
      "комитета": 3687,
      "сезона": 3688,
      "деятельности": 3689,
      "памят": 3690,
      "коммерсант": 3691,
      "ря": 3692,
      "##рез": 3693,
      "онлаин": 3694,
      "композ": 3695,
      "назвал": 3696,
      "результаты": 3697,
      "детеи": 3698,
      "восточ": 3699,
      "аэропорт": 3700,
      "##ившии": 3701,
      "бюджета": 3702,
      "животных": 3703,
      "тради": 3704,
      "германии": 3705,
      "be": 3706,
      "дер": 3707,
      "прист": 3708,
      "первым": 3709,
      "##ницы": 3710,
      "ауди": 3711,
      "вик": 3712,
      "##фин": 3713,
      "выбор": 3714,
      "##ционного": 3715,
      "кап": 3716,
      "министра": 3717,
      "петербург": 3718,
      "ир": 3719,
      "кал": 3720,
      "каб": 3721,
      "кали": 3722,
      "##эконом": 3723,
      "перспектив": 3724,
      "##ическая": 3725,
      "сделать": 3726,
      "дальнеи": 3727,
      "другои": 3728,
      "вступ": 3729,
      "зал": 3730,
      "ленте": 3731,
      "##пания": 3732,
      "которым": 3733,
      "картина": 3734,
      "обнаружили": 3735,
      "##ите": 3736,
      "комплек": 3737,
      "источники": 3738,
      "гиг": 3739,
      "пат": 3740,
      "изуч": 3741,
      "приб": 3742,
      "##ционных": 3743,
      "своим": 3744,
      "американскои": 3745,
      "октябре": 3746,
      "успеш": 3747,
      "уточняется": 3748,
      "400": 3749,
      "облад": 3750,
      "##лаго": 3751,
      "предвар": 3752,
      "##ательно": 3753,
      "##ort": 3754,
      "организация": 3755,
      "официально": 3756,
      "закрыт": 3757,
      "сирии": 3758,
      "оно": 3759,
      "##наз": 3760,
      "2017": 3761,
      "##никам": 3762,
      "уровне": 3763,
      "солн": 3764,
      "##енности": 3765,
      "недост": 3766,
      "включая": 3767,
      "воздуш": 3768,
      "внутрен": 3769,
      "##гля": 3770,
      "##образ": 3771,
      "саита": 3772,
      "фильме": 3773,
      "произошел": 3774,
      "хокк": 3775,
      "конференции": 3776,
      "гон": 3777,
      "ото": 3778,
      "страт": 3779,
      "удар": 3780,
      "пу": 3781,
      "трав": 3782,
      "заим": 3783,
      "составил": 3784,
      "арбит": 3785,
      "оборуд": 3786,
      "килограм": 3787,
      "необходимо": 3788,
      "красно": 3789,
      "ассоциации": 3790,
      "смен": 3791,
      "##ьез": 3792,
      "стер": 3793,
      "спарт": 3794,
      "сможет": 3795,
      "занимает": 3796,
      "регуляр": 3797,
      "лондон": 3798,
      "вруч": 3799,
      "пав": 3800,
      "тан": 3801,
      "##бои": 3802,
      "перен": 3803,
      "##меш": 3804,
      "стол": 3805,
      "украине": 3806,
      "ip": 3807,
      "##ва": 3808,
      "##мс": 3809,
      "##ыск": 3810,
      "##еиц": 3811,
      "выруч": 3812,
      "первую": 3813,
      "июле": 3814,
      "большин": 3815,
      "хотя": 3816,
      "михаил": 3817,
      "хоккеи": 3818,
      "бокс": 3819,
      "зол": 3820,
      "ход": 3821,
      "цена": 3822,
      "##ky": 3823,
      "##овала": 3824,
      "приост": 3825,
      "августе": 3826,
      "канд": 3827,
      "##ока": 3828,
      "##фа": 3829,
      "##ждение": 3830,
      "рабоч": 3831,
      "помог": 3832,
      "ночь": 3833,
      "характер": 3834,
      "вас": 3835,
      "##жен": 3836,
      "##овые": 3837,
      "кост": 3838,
      "россию": 3839,
      "евг": 3840,
      "очков": 3841,
      "пояснил": 3842,
      "пораж": 3843,
      "чемпионате": 3844,
      "названием": 3845,
      "центра": 3846,
      "##яжении": 3847,
      "en": 3848,
      "бои": 3849,
      "тру": 3850,
      "##пе": 3851,
      "##леи": 3852,
      "##em": 3853,
      "##енда": 3854,
      "высказ": 3855,
      "##каун": 3856,
      "спект": 3857,
      "опис": 3858,
      "близ": 3859,
      "сравн": 3860,
      "швеиц": 3861,
      "##флик": 3862,
      "фонда": 3863,
      "стратег": 3864,
      "ны": 3865,
      "##мар": 3866,
      "##иями": 3867,
      "##ама": 3868,
      "конфлик": 3869,
      "криз": 3870,
      "самои": 3871,
      "##рабат": 3872,
      "места": 3873,
      "московскои": 3874,
      "90": 3875,
      "иде": 3876,
      "игор": 3877,
      "##vi": 3878,
      "напада": 3879,
      "##реп": 3880,
      "странице": 3881,
      "аккаун": 3882,
      "концерт": 3883,
      "сервиса": 3884,
      "метал": 3885,
      "законод": 3886,
      "дон": 3887,
      "иран": 3888,
      "эм": 3889,
      "команда": 3890,
      "поверх": 3891,
      "домаш": 3892,
      "результат": 3893,
      "оказался": 3894,
      "футболу": 3895,
      "переговоры": 3896,
      "соревн": 3897,
      "вось": 3898,
      "кад": 3899,
      "спец": 3900,
      "»),": 3901,
      "олимпиад": 3902,
      "тол": 3903,
      "##мос": 3904,
      "##чис": 3905,
      "##чики": 3906,
      "##жет": 3907,
      "##фиц": 3908,
      "увид": 3909,
      "житель": 3910,
      "ид": 3911,
      "##поч": 3912,
      "##яла": 3913,
      "##ld": 3914,
      "##эм": 3915,
      "##аки": 3916,
      "персона": 3917,
      "главным": 3918,
      "##ифа": 3919,
      "относ": 3920,
      "рассмотр": 3921,
      "перевоз": 3922,
      "gu": 3923,
      "th": 3924,
      "##ког": 3925,
      "запрос": 3926,
      "».«": 3927,
      "##est": 3928,
      "турни": 3929,
      "сборная": 3930,
      "адв": 3931,
      "##емонстр": 3932,
      "подозрев": 3933,
      "##акон": 3934,
      "##ляется": 3935,
      "##ованием": 3936,
      "##кова": 3937,
      "постоян": 3938,
      "журнала": 3939,
      "модерн": 3940,
      "месяц": 3941,
      "силу": 3942,
      "дизаин": 3943,
      "дра": 3944,
      "обнов": 3945,
      "просто": 3946,
      "списк": 3947,
      "##ическом": 3948,
      "авторы": 3949,
      "дл": 3950,
      "заработ": 3951,
      "воск": 3952,
      "##лению": 3953,
      "курс": 3954,
      "запуст": 3955,
      "медведев": 3956,
      "цска": 3957,
      "##аля": 3958,
      "##едж": 3959,
      "военно": 3960,
      "начали": 3961,
      "турн": 3962,
      "недели": 3963,
      "террор": 3964,
      "руководство": 3965,
      "ответствен": 3966,
      "приход": 3967,
      "33": 3968,
      "75": 3969,
      "am": 3970,
      "жан": 3971,
      "низ": 3972,
      "##иан": 3973,
      "##ерна": 3974,
      "##орон": 3975,
      "##ограф": 3976,
      "##ическую": 3977,
      "##умы": 3978,
      "провести": 3979,
      "матчеи": 3980,
      "директора": 3981,
      "каждыи": 3982,
      "зенит": 3983,
      "исл": 3984,
      "##ствие": 3985,
      "##рук": 3986,
      "##отреб": 3987,
      "##артам": 3988,
      "новост": 3989,
      "сделки": 3990,
      "позволяет": 3991,
      "знам": 3992,
      "телеканала": 3993,
      "предполагается": 3994,
      "бо": 3995,
      "лок": 3996,
      "##аим": 3997,
      "такое": 3998,
      "инт": 3999,
      "компаниеи": 4000,
      "должно": 4001,
      "ученых": 4002,
      "восстанов": 4003,
      "рассчит": 4004,
      "принадлежит": 4005,
      "текущего": 4006,
      "приостанов": 4007,
      "тест": 4008,
      "этому": 4009,
      "напад": 4010,
      "итоге": 4011,
      "бизнесмен": 4012,
      "влия": 4013,
      "##se": 4014,
      "подроб": 4015,
      "иници": 4016,
      "вероят": 4017,
      "##ясня": 4018,
      "финансирован": 4019,
      "##аемых": 4020,
      "##ell": 4021,
      "фильмов": 4022,
      "женщина": 4023,
      "регуля": 4024,
      "##онтакт": 4025,
      "адвок": 4026,
      "сол": 4027,
      "неод": 4028,
      "##иссии": 4029,
      "позволит": 4030,
      "вышла": 4031,
      "34": 4032,
      "mail": 4033,
      "sh": 4034,
      "бл": 4035,
      "##ния": 4036,
      "##око": 4037,
      "подв": 4038,
      "летнего": 4039,
      "полиция": 4040,
      "школ": 4041,
      "энергет": 4042,
      "театра": 4043,
      "позднее": 4044,
      "##ost": 4045,
      "участников": 4046,
      "мужчина": 4047,
      "сложности": 4048,
      "ag": 4049,
      "благо": 4050,
      "##тс": 4051,
      "замен": 4052,
      "##еспонд": 4053,
      "объявил": 4054,
      "условиях": 4055,
      "законопроект": 4056,
      "##ive": 4057,
      "air": 4058,
      "wor": 4059,
      "глу": 4060,
      "##ули": 4061,
      "##икл": 4062,
      "##жегод": 4063,
      "болель": 4064,
      "сезоне": 4065,
      "or": 4066,
      "ежегод": 4067,
      "кэ": 4068,
      "кит": 4069,
      "мех": 4070,
      "##обещ": 4071,
      "одном": 4072,
      "останов": 4073,
      "производство": 4074,
      "канал": 4075,
      "самолета": 4076,
      "##oll": 4077,
      "эксперим": 4078,
      "тяжел": 4079,
      "мне": 4080,
      "##ировки": 4081,
      "полном": 4082,
      "##end": 4083,
      "##ated": 4084,
      "втором": 4085,
      "московского": 4086,
      "андреи": 4087,
      "воскрес": 4088,
      "ес": 4089,
      "сф": 4090,
      "задач": 4091,
      "отстав": 4092,
      "комплекс": 4093,
      "секунд": 4094,
      "бог": 4095,
      "спрос": 4096,
      "##нк": 4097,
      "##чика": 4098,
      "##оке": 4099,
      "##ленные": 4100,
      "##ическое": 4101,
      "опер": 4102,
      "серьез": 4103,
      "проектов": 4104,
      "функ": 4105,
      "корреспонд": 4106,
      "подраздел": 4107,
      "эр": 4108,
      "##вол": 4109,
      "пообещ": 4110,
      "##гон": 4111,
      "изнач": 4112,
      "##есть": 4113,
      "2018": 4114,
      "первое": 4115,
      "испан": 4116,
      "достаточ": 4117,
      "поставки": 4118,
      "интернете": 4119,
      "рассматр": 4120,
      "associ": 4121,
      "55": 4122,
      "ве": 4123,
      "прес": 4124,
      "защ": 4125,
      "решили": 4126,
      "следствен": 4127,
      "журнал": 4128,
      "союз": 4129,
      "бесплат": 4130,
      "культуры": 4131,
      "микроб": 4132,
      "##ерии": 4133,
      "##лач": 4134,
      "##ида": 4135,
      "одобр": 4136,
      "приговор": 4137,
      "встречи": 4138,
      "прошлом": 4139,
      "музыкант": 4140,
      "промышлен": 4141,
      "предприним": 4142,
      "мяч": 4143,
      "цвет": 4144,
      "##пт": 4145,
      "##шиб": 4146,
      "##уть": 4147,
      "##нова": 4148,
      "орг": 4149,
      "выхода": 4150,
      "десять": 4151,
      "ох": 4152,
      "тар": 4153,
      "##az": 4154,
      "##фе": 4155,
      "##икои": 4156,
      "начин": 4157,
      "одну": 4158,
      "сканд": 4159,
      "футболист": 4160,
      "незав": 4161,
      "меньше": 4162,
      "##егистр": 4163,
      "летом": 4164,
      "издатель": 4165,
      "отвеч": 4166,
      "пен": 4167,
      "юр": 4168,
      "##ляции": 4169,
      "первая": 4170,
      "мощ": 4171,
      "##ируется": 4172,
      "переда": 4173,
      "оказались": 4174,
      "служба": 4175,
      "восемь": 4176,
      "##phone": 4177,
      "роман": 4178,
      "##ure": 4179,
      "##ta": 4180,
      "американского": 4181,
      "американская": 4182,
      "машин": 4183,
      "социальнои": 4184,
      "триллиона": 4185,
      "вд": 4186,
      "##вал": 4187,
      "##рала": 4188,
      "##щен": 4189,
      "##ерин": 4190,
      "двум": 4191,
      "экз": 4192,
      "госд": 4193,
      "##ителям": 4194,
      "владимира": 4195,
      "класс": 4196,
      "##атур": 4197,
      "новая": 4198,
      "представителеи": 4199,
      "остан": 4200,
      "основе": 4201,
      "38": 4202,
      "br": 4203,
      "лента": 4204,
      "оск": 4205,
      "уход": 4206,
      "##ратив": 4207,
      "новую": 4208,
      "привлеч": 4209,
      "зарегистр": 4210,
      "министерства": 4211,
      "смерти": 4212,
      "претенд": 4213,
      "37": 4214,
      "генд": 4215,
      "лев": 4216,
      "меры": 4217,
      "##нич": 4218,
      "##анции": 4219,
      "сообщения": 4220,
      "собран": 4221,
      "участием": 4222,
      "штат": 4223,
      "строительство": 4224,
      "дэвид": 4225,
      "хак": 4226,
      "##до": 4227,
      "##еком": 4228,
      "заявление": 4229,
      "вконтакт": 4230,
      "партии": 4231,
      "катего": 4232,
      "приобрет": 4233,
      "корпорации": 4234,
      "вконтакте": 4235,
      "зо": 4236,
      "ошиб": 4237,
      "засед": 4238,
      "выплат": 4239,
      "крист": 4240,
      "##курат": 4241,
      "возбу": 4242,
      "спорта": 4243,
      "роли": 4244,
      "земли": 4245,
      "налич": 4246,
      "инцидент": 4247,
      "вариант": 4248,
      "##тр": 4249,
      "##сел": 4250,
      "##оли": 4251,
      "спуст": 4252,
      "##ционныи": 4253,
      "игру": 4254,
      "игре": 4255,
      "##стрии": 4256,
      "ближаишее": 4257,
      "субб": 4258,
      "сх": 4259,
      "фак": 4260,
      "##енность": 4261,
      "##аба": 4262,
      "ниже": 4263,
      "желез": 4264,
      "неболь": 4265,
      "продукции": 4266,
      "изначально": 4267,
      "fran": 4268,
      "##ившем": 4269,
      "##ительным": 4270,
      "2004": 4271,
      "марк": 4272,
      "незакон": 4273,
      "мвд": 4274,
      "##ight": 4275,
      "ex": 4276,
      "прось": 4277,
      "наказ": 4278,
      "##куль": 4279,
      "##изацию": 4280,
      "создан": 4281,
      "внес": 4282,
      "анон": 4283,
      "жизнь": 4284,
      "associated": 4285,
      "умер": 4286,
      "##лы": 4287,
      "##анс": 4288,
      "##сят": 4289,
      "доч": 4290,
      "передач": 4291,
      "ролик": 4292,
      "динамо": 4293,
      "нынеш": 4294,
      "лен": 4295,
      "мино": 4296,
      "##ry": 4297,
      "прокат": 4298,
      "такого": 4299,
      "##ованию": 4300,
      "участники": 4301,
      "протест": 4302,
      "привлек": 4303,
      "предложил": 4304,
      "вместо": 4305,
      "##нократ": 4306,
      "ситуации": 4307,
      "возвращ": 4308,
      "профессион": 4309,
      "iphone": 4310,
      "se": 4311,
      "увер": 4312,
      "##аза": 4313,
      "резерв": 4314,
      "##ующих": 4315,
      "считается": 4316,
      "различных": 4317,
      "ключ": 4318,
      "зах": 4319,
      "вернуть": 4320,
      "##ity": 4321,
      "основнои": 4322,
      "музея": 4323,
      "сыгра": 4324,
      "свидетель": 4325,
      "ребен": 4326,
      "gro": 4327,
      "##рали": 4328,
      "попрос": 4329,
      "##нос": 4330,
      "##инах": 4331,
      "проп": 4332,
      "##ительного": 4333,
      "##руга": 4334,
      "решил": 4335,
      "граф": 4336,
      "менедж": 4337,
      "вооружении": 4338,
      "превыш": 4339,
      "неоднократ": 4340,
      "дат": 4341,
      "дис": 4342,
      "жал": 4343,
      "комитет": 4344,
      "##енье": 4345,
      "##ows": 4346,
      "крупнеиших": 4347,
      "встреча": 4348,
      "##box": 4349,
      "tele": 4350,
      "##послед": 4351,
      "коммерсантъ": 4352,
      "моз": 4353,
      "##под": 4354,
      "##во": 4355,
      "странах": 4356,
      "коллег": 4357,
      "судеб": 4358,
      "создание": 4359,
      "произвед": 4360,
      "сыг": 4361,
      "международнои": 4362,
      "минуте": 4363,
      "ii": 4364,
      "it": 4365,
      "бель": 4366,
      "вин": 4367,
      "еги": 4368,
      "мад": 4369,
      "тит": 4370,
      "наид": 4371,
      "##иля": 4372,
      "##азд": 4373,
      "##евых": 4374,
      "канала": 4375,
      "устроиств": 4376,
      "сценар": 4377,
      "##назнач": 4378,
      "стерл": 4379,
      "игорь": 4380,
      "pro": 4381,
      "жест": 4382,
      "рэ": 4383,
      "##овер": 4384,
      "предназнач": 4385,
      "редакцию": 4386,
      "нарк": 4387,
      "специалисты": 4388,
      "сократ": 4389,
      "екат": 4390,
      "пан": 4391,
      "чит": 4392,
      "##ram": 4393,
      "##коп": 4394,
      "##ечествен": 4395,
      "расшир": 4396,
      "##ющеи": 4397,
      "##изация": 4398,
      "##уются": 4399,
      "нефтя": 4400,
      "баррель": 4401,
      "гендирек": 4402,
      "отмечают": 4403,
      "##ash": 4404,
      "здоров": 4405,
      "эпиз": 4406,
      "турнира": 4407,
      "47": 4408,
      "ки": 4409,
      "ур": 4410,
      "##ep": 4411,
      "преду": 4412,
      "разных": 4413,
      "серге": 4414,
      "центре": 4415,
      "статьи": 4416,
      "произошло": 4417,
      "базе": 4418,
      "испытания": 4419,
      "микроблог": 4420,
      "bo": 4421,
      "вит": 4422,
      "масс": 4423,
      "пт": 4424,
      "##аже": 4425,
      "##жив": 4426,
      "##ско": 4427,
      "##лиш": 4428,
      "прокурат": 4429,
      "самого": 4430,
      "продав": 4431,
      "принес": 4432,
      "турец": 4433,
      "второе": 4434,
      "станции": 4435,
      "которому": 4436,
      "алког": 4437,
      "кубометров": 4438,
      "искусства": 4439,
      "##гляд": 4440,
      "вскор": 4441,
      "олег": 4442,
      "фили": 4443,
      "##гии": 4444,
      "сочи": 4445,
      "##кое": 4446,
      "новым": 4447,
      "летняя": 4448,
      "покин": 4449,
      "месяца": 4450,
      "52": 4451,
      "ph": 4452,
      "уэ": 4453,
      "фифа": 4454,
      "##ованы": 4455,
      "само": 4456,
      "андж": 4457,
      "2005": 4458,
      "верх": 4459,
      "протяжении": 4460,
      "пользователь": 4461,
      "рынок": 4462,
      "поставку": 4463,
      "обвиня": 4464,
      "студия": 4465,
      "вскоре": 4466,
      "тенд": 4467,
      "##гент": 4468,
      "празд": 4469,
      "##тое": 4470,
      "наити": 4471,
      "##ore": 4472,
      "теле": 4473,
      "могли": 4474,
      "рассказала": 4475,
      "экономики": 4476,
      "книги": 4477,
      "уровень": 4478,
      "лондоне": 4479,
      "версия": 4480,
      "независим": 4481,
      "спустя": 4482,
      "39": 4483,
      "клич": 4484,
      "фоне": 4485,
      "##оры": 4486,
      "оде": 4487,
      "##ющего": 4488,
      "москва": 4489,
      "платеж": 4490,
      "петербурге": 4491,
      "эксперты": 4492,
      "авиакомпании": 4493,
      "wind": 4494,
      "рок": 4495,
      "хим": 4496,
      "##шись": 4497,
      "##енными": 4498,
      "##ани": 4499,
      "##ременно": 4500,
      "исследовании": 4501,
      "доказ": 4502,
      "денег": 4503,
      "вечером": 4504,
      "##авлив": 4505,
      "учре": 4506,
      "медиц": 4507,
      "программа": 4508,
      "массов": 4509,
      "воскресенье": 4510,
      "ниче": 4511,
      "элем": 4512,
      "нат": 4513,
      "##обы": 4514,
      "##изм": 4515,
      "##астро": 4516,
      "##ицу": 4517,
      "##игин": 4518,
      "осна": 4519,
      "королев": 4520,
      "роста": 4521,
      "автомобиль": 4522,
      "телевиз": 4523,
      "механ": 4524,
      "стерлингов": 4525,
      "бом": 4526,
      "геи": 4527,
      "гиб": 4528,
      "сиг": 4529,
      "фан": 4530,
      "##оедин": 4531,
      "испол": 4532,
      "законч": 4533,
      "отказался": 4534,
      "##разв": 4535,
      "долго": 4536,
      "всеи": 4537,
      "2000": 4538,
      "машины": 4539,
      "компьютер": 4540,
      "раионе": 4541,
      "ничего": 4542,
      "##ким": 4543,
      "##ъяв": 4544,
      "прок": 4545,
      "оригин": 4546,
      "получит": 4547,
      "принял": 4548,
      "публикации": 4549,
      "аналит": 4550,
      "егип": 4551,
      "##ема": 4552,
      "нег": 4553,
      "##ивал": 4554,
      "##езда": 4555,
      "работал": 4556,
      "##верг": 4557,
      "систему": 4558,
      "сторон": 4559,
      "ввп": 4560,
      "территор": 4561,
      "норв": 4562,
      "норм": 4563,
      "всемир": 4564,
      "вошли": 4565,
      "инициатив": 4566,
      "group": 4567,
      "неоднократно": 4568,
      "windows": 4569,
      "48": 4570,
      "зим": 4571,
      "золо": 4572,
      "##енту": 4573,
      "экст": 4574,
      "##ируют": 4575,
      "департам": 4576,
      "входит": 4577,
      "контроль": 4578,
      "неизвестно": 4579,
      "##нюю": 4580,
      "столк": 4581,
      "риск": 4582,
      "##ыше": 4583,
      "##ax": 4584,
      "прир": 4585,
      "неуд": 4586,
      "вык": 4587,
      "проч": 4588,
      "свыше": 4589,
      "продаже": 4590,
      "трет": 4591,
      "принять": 4592,
      "турист": 4593,
      "медиа": 4594,
      "оказалось": 4595,
      "конкурса": 4596,
      "леон": 4597,
      "вокруг": 4598,
      "субботу": 4599,
      "лос": 4600,
      "циф": 4601,
      "##енса": 4602,
      "##ерами": 4603,
      "##авшие": 4604,
      "станд": 4605,
      "размест": 4606,
      "еврос": 4607,
      "деб": 4608,
      "завоев": 4609,
      "##ающеи": 4610,
      "аукцион": 4611,
      "кандид": 4612,
      "древ": 4613,
      "##ресс": 4614,
      "##pe": 4615,
      "станов": 4616,
      "однов": 4617,
      "##циях": 4618,
      "##ированы": 4619,
      "inst": 4620,
      "присутств": 4621,
      "исследователи": 4622,
      "возбужд": 4623,
      "хоч": 4624,
      "эд": 4625,
      "##бин": 4626,
      "##енью": 4627,
      "##ениями": 4628,
      "создать": 4629,
      "потен": 4630,
      "бывшего": 4631,
      "автомат": 4632,
      "приняли": 4633,
      "текст": 4634,
      "воины": 4635,
      "автомобилеи": 4636,
      "to": 4637,
      "друз": 4638,
      "##омет": 4639,
      "продл": 4640,
      "##ank": 4641,
      "##les": 4642,
      "делу": 4643,
      "службе": 4644,
      "снят": 4645,
      "твит": 4646,
      "предусматр": 4647,
      "ислам": 4648,
      "анджел": 4649,
      "ту": 4650,
      "##ви": 4651,
      "миллион": 4652,
      "##ony": 4653,
      "##ирование": 4654,
      "##платы": 4655,
      "поддержку": 4656,
      "проходит": 4657,
      "блоге": 4658,
      "глоб": 4659,
      "world": 4660,
      "астро": 4661,
      "кир": 4662,
      "уш": 4663,
      "##гар": 4664,
      "##ьше": 4665,
      "##зыв": 4666,
      "##шев": 4667,
      "##стан": 4668,
      "##лаб": 4669,
      "предъяв": 4670,
      "##ибир": 4671,
      "модели": 4672,
      "скорость": 4673,
      "телевид": 4674,
      "бирже": 4675,
      "виз": 4676,
      "опров": 4677,
      "##оном": 4678,
      "##ьм": 4679,
      "##ment": 4680,
      "##ys": 4681,
      "##есь": 4682,
      "взрыв": 4683,
      "узн": 4684,
      "эффектив": 4685,
      "наркот": 4686,
      "sky": 4687,
      "##филь": 4688,
      "##ившего": 4689,
      "##ича": 4690,
      "##инации": 4691,
      "##ork": 4692,
      "##защит": 4693,
      "проведения": 4694,
      "уголовное": 4695,
      "рестор": 4696,
      "грузов": 4697,
      "швеицар": 4698,
      "бук": 4699,
      "лит": 4700,
      "фр": 4701,
      "шести": 4702,
      "##th": 4703,
      "##ичто": 4704,
      "второго": 4705,
      "следов": 4706,
      "кубка": 4707,
      "пришлось": 4708,
      "движения": 4709,
      "целью": 4710,
      "guard": 4711,
      "41": 4712,
      "ван": 4713,
      "нен": 4714,
      "тим": 4715,
      "##ха": 4716,
      "##тона": 4717,
      "обмен": 4718,
      "корот": 4719,
      "планеты": 4720,
      "системе": 4721,
      "покол": 4722,
      "находятся": 4723,
      "переход": 4724,
      "france": 4725,
      "медицин": 4726,
      "клет": 4727,
      "##стер": 4728,
      "##овыи": 4729,
      "проком": 4730,
      "взаим": 4731,
      "программу": 4732,
      "японии": 4733,
      "мероприятия": 4734,
      "роснефти": 4735,
      "сегодняш": 4736,
      "прокоммент": 4737,
      "див": 4738,
      "##лан": 4739,
      "россииским": 4740,
      "справ": 4741,
      "##ood": 4742,
      "недавно": 4743,
      "александра": 4744,
      "корабля": 4745,
      "электр": 4746,
      "соглашения": 4747,
      "деятельность": 4748,
      "обсужд": 4749,
      "ку": 4750,
      "уж": 4751,
      "составля": 4752,
      "правил": 4753,
      "создании": 4754,
      "занимается": 4755,
      "активов": 4756,
      "соцсети": 4757,
      "собирается": 4758,
      "guardian": 4759,
      "49": 4760,
      "меж": 4761,
      "обслуж": 4762,
      "стив": 4763,
      "раздел": 4764,
      "компанию": 4765,
      "занял": 4766,
      "владе": 4767,
      "превыс": 4768,
      "изменения": 4769,
      "сберб": 4770,
      "пластин": 4771,
      "зел": 4772,
      "ча": 4773,
      "##af": 4774,
      "преж": 4775,
      "перест": 4776,
      "доля": 4777,
      "миллиард": 4778,
      "форвард": 4779,
      "премьера": 4780,
      "конкурс": 4781,
      "корабль": 4782,
      "футбольного": 4783,
      "игроков": 4784,
      "иорк": 4785,
      "никаких": 4786,
      "актриса": 4787,
      "практически": 4788,
      "китая": 4789,
      "достаточно": 4790,
      "44": 4791,
      "меч": 4792,
      "##вали": 4793,
      "##бер": 4794,
      "потому": 4795,
      "##онс": 4796,
      "извин": 4797,
      "##убеж": 4798,
      "турции": 4799,
      "большого": 4800,
      "уточнил": 4801,
      "псих": 4802,
      "встр": 4803,
      "чарт": 4804,
      "##етом": 4805,
      "##рас": 4806,
      "##ивших": 4807,
      "сама": 4808,
      "##ющим": 4809,
      "##бороны": 4810,
      "увол": 4811,
      "техники": 4812,
      "исследование": 4813,
      "британскии": 4814,
      "случаи": 4815,
      "статье": 4816,
      "соответственно": 4817,
      "поступившем": 4818,
      "зарубеж": 4819,
      "директоров": 4820,
      "супер": 4821,
      "записи": 4822,
      "беспилот": 4823,
      "##еин": 4824,
      "##iz": 4825,
      "##man": 4826,
      "потом": 4827,
      "##одеиств": 4828,
      "##авшего": 4829,
      "стаб": 4830,
      "кош": 4831,
      "доп": 4832,
      "деиствующ": 4833,
      "обвинения": 4834,
      "платфор": 4835,
      "входят": 4836,
      "устроиства": 4837,
      "51": 4838,
      "впослед": 4839,
      "жителеи": 4840,
      "##дон": 4841,
      "##уков": 4842,
      "соедин": 4843,
      "##лян": 4844,
      "##егда": 4845,
      "американские": 4846,
      "появились": 4847,
      "крупных": 4848,
      "руководитель": 4849,
      "запас": 4850,
      "большинство": 4851,
      "впоследствии": 4852,
      "код": 4853,
      "нхл": 4854,
      "уиль": 4855,
      "эки": 4856,
      "##оин": 4857,
      "##оже": 4858,
      "доллар": 4859,
      "создания": 4860,
      "неделю": 4861,
      "состоянии": 4862,
      "играх": 4863,
      "бур": 4864,
      "вет": 4865,
      "заплат": 4866,
      "реализ": 4867,
      "поле": 4868,
      "раньше": 4869,
      "имеют": 4870,
      "##ock": 4871,
      "дмитр": 4872,
      "инстру": 4873,
      "минобороны": 4874,
      "встрет": 4875,
      "le": 4876,
      "un": 4877,
      "сед": 4878,
      "чист": 4879,
      "##нему": 4880,
      "##илет": 4881,
      "##есед": 4882,
      "перер": 4883,
      "##ass": 4884,
      "победу": 4885,
      "##uss": 4886,
      "женщин": 4887,
      "воздух": 4888,
      "органов": 4889,
      "ad": 4890,
      "xbox": 4891,
      "лаб": 4892,
      "ущ": 4893,
      "##aw": 4894,
      "##эт": 4895,
      "полаг": 4896,
      "##иле": 4897,
      "##идер": 4898,
      "сведения": 4899,
      "опт": 4900,
      "##щество": 4901,
      "первых": 4902,
      "тому": 4903,
      "намерен": 4904,
      "располаг": 4905,
      "мировои": 4906,
      "андре": 4907,
      "версию": 4908,
      "услуг": 4909,
      "негатив": 4910,
      "гроз": 4911,
      "ил": 4912,
      "круг": 4913,
      "маст": 4914,
      "##нение": 4915,
      "прие": 4916,
      "вып": 4917,
      "##ленныи": 4918,
      "представляет": 4919,
      "##ированных": 4920,
      "участия": 4921,
      "отметила": 4922,
      "возможности": 4923,
      "##иссия": 4924,
      "##agram": 4925,
      "рядом": 4926,
      "населения": 4927,
      "bbc": 4928,
      "sci": 4929,
      "биб": 4930,
      "мю": 4931,
      "оке": 4932,
      "шут": 4933,
      "##виж": 4934,
      "отстран": 4935,
      "выну": 4936,
      "##рока": 4937,
      "какои": 4938,
      "##опар": 4939,
      "сконч": 4940,
      "американских": 4941,
      "появился": 4942,
      "##ams": 4943,
      "опубликовано": 4944,
      "отдых": 4945,
      "генеральныи": 4946,
      "фигур": 4947,
      "дерев": 4948,
      "одновременно": 4949,
      "акад": 4950,
      "губ": 4951,
      "кот": 4952,
      "тура": 4953,
      "##кая": 4954,
      "##ьян": 4955,
      "##ития": 4956,
      "##жде": 4957,
      "##отои": 4958,
      "существен": 4959,
      "самолеты": 4960,
      "европе": 4961,
      "некоторых": 4962,
      "##остоятель": 4963,
      "we": 4964,
      "war": 4965,
      "рав": 4966,
      "##илия": 4967,
      "сопер": 4968,
      "расстоя": 4969,
      "реком": 4970,
      "предложение": 4971,
      "десяти": 4972,
      "требования": 4973,
      "вынужд": 4974,
      "42": 4975,
      "еж": 4976,
      "сал": 4977,
      "##тв": 4978,
      "##рот": 4979,
      "##цами": 4980,
      "##ah": 4981,
      "##итар": 4982,
      "##раг": 4983,
      "отечествен": 4984,
      "##тория": 4985,
      "первен": 4986,
      "ведомости": 4987,
      "##ологи": 4988,
      "целом": 4989,
      "председатель": 4990,
      "коллектив": 4991,
      "64": 4992,
      "мут": 4993,
      "фс": 4994,
      "##nal": 4995,
      "##ету": 4996,
      "##оза": 4997,
      "трек": 4998,
      "принци": 4999
    }
  }
}